node {
  name: "global_step/Initializer/zeros"
  op: "Const"
  attr {
    key: "_class"
    value {
      list {
        s: "loc:@global_step"
      }
    }
  }
  attr {
    key: "_output_shapes"
    value {
      list {
        shape {
        }
      }
    }
  }
  attr {
    key: "dtype"
    value {
      type: DT_INT64
    }
  }
  attr {
    key: "value"
    value {
      tensor {
        dtype: DT_INT64
        tensor_shape {
        }
        int64_val: 0
      }
    }
  }
}
node {
  name: "global_step"
  op: "VarHandleOp"
  attr {
    key: "_class"
    value {
      list {
        s: "loc:@global_step"
      }
    }
  }
  attr {
    key: "_output_shapes"
    value {
      list {
        shape {
        }
      }
    }
  }
  attr {
    key: "allowed_devices"
    value {
      list {
      }
    }
  }
  attr {
    key: "container"
    value {
      s: ""
    }
  }
  attr {
    key: "dtype"
    value {
      type: DT_INT64
    }
  }
  attr {
    key: "shape"
    value {
      shape {
      }
    }
  }
  attr {
    key: "shared_name"
    value {
      s: "global_step"
    }
  }
}
node {
  name: "global_step/IsInitialized/VarIsInitializedOp"
  op: "VarIsInitializedOp"
  input: "global_step"
  attr {
    key: "_output_shapes"
    value {
      list {
        shape {
        }
      }
    }
  }
}
node {
  name: "global_step/Assign"
  op: "AssignVariableOp"
  input: "global_step"
  input: "global_step/Initializer/zeros"
  attr {
    key: "dtype"
    value {
      type: DT_INT64
    }
  }
  attr {
    key: "validate_shape"
    value {
      b: false
    }
  }
}
node {
  name: "global_step/Read/ReadVariableOp"
  op: "ReadVariableOp"
  input: "global_step"
  attr {
    key: "_output_shapes"
    value {
      list {
        shape {
        }
      }
    }
  }
  attr {
    key: "dtype"
    value {
      type: DT_INT64
    }
  }
}
node {
  name: "global_step/VarIsInitializedOp"
  op: "VarIsInitializedOp"
  input: "global_step"
  attr {
    key: "_output_shapes"
    value {
      list {
        shape {
        }
      }
    }
  }
}
node {
  name: "global_step/cond"
  op: "If"
  input: "global_step/VarIsInitializedOp"
  input: "global_step"
  input: "global_step/Initializer/zeros"
  attr {
    key: "Tcond"
    value {
      type: DT_BOOL
    }
  }
  attr {
    key: "Tin"
    value {
      list {
        type: DT_RESOURCE
        type: DT_INT64
      }
    }
  }
  attr {
    key: "Tout"
    value {
      list {
        type: DT_INT64
      }
    }
  }
  attr {
    key: "_lower_using_switch_merge"
    value {
      b: true
    }
  }
  attr {
    key: "_output_shapes"
    value {
      list {
        shape {
        }
      }
    }
  }
  attr {
    key: "_read_only_resource_inputs"
    value {
      list {
        i: 1
      }
    }
  }
  attr {
    key: "else_branch"
    value {
      func {
        name: "global_step_cond_false_11151"
      }
    }
  }
  attr {
    key: "output_shapes"
    value {
      list {
        shape {
        }
      }
    }
  }
  attr {
    key: "then_branch"
    value {
      func {
        name: "global_step_cond_true_11150"
      }
    }
  }
}
node {
  name: "global_step/cond/Identity"
  op: "Identity"
  input: "global_step/cond"
  attr {
    key: "T"
    value {
      type: DT_INT64
    }
  }
  attr {
    key: "_output_shapes"
    value {
      list {
        shape {
        }
      }
    }
  }
}
node {
  name: "global_step/add/y"
  op: "Const"
  attr {
    key: "_output_shapes"
    value {
      list {
        shape {
        }
      }
    }
  }
  attr {
    key: "dtype"
    value {
      type: DT_INT64
    }
  }
  attr {
    key: "value"
    value {
      tensor {
        dtype: DT_INT64
        tensor_shape {
        }
        int64_val: 0
      }
    }
  }
}
node {
  name: "global_step/add"
  op: "AddV2"
  input: "global_step/cond/Identity"
  input: "global_step/add/y"
  attr {
    key: "T"
    value {
      type: DT_INT64
    }
  }
  attr {
    key: "_output_shapes"
    value {
      list {
        shape {
        }
      }
    }
  }
}
node {
  name: "normalize_element/component_0"
  op: "Const"
  device: "/device:CPU:0"
  attr {
    key: "_output_shapes"
    value {
      list {
        shape {
          dim {
            size: 2276
          }
        }
      }
    }
  }
  attr {
    key: "dtype"
    value {
      type: DT_DOUBLE
    }
  }
  attr {
    key: "value"
    value {
      tensor {
        dtype: DT_DOUBLE
        tensor_shape {
          dim {
            size: 2276
          }
        }
        tensor_content: "\000\000\000\300g\006\332?\377\377\377\037,.\332?\000\000\000`\337\376\332?\000\000\000@\232\325\333?\000\000\000\000\210\277\334?\000\000\000\000x\257\335?\377\377\377\037-L\336?\000\000\000\240\027\206\336?\000\000\000\3006\273\335?\000\000\000\240j\227\334?\377\377\377\377\342\224\333?\000\000\000\000\221Y\333?\000\000\000\340-\327\333?\377\377\377_o\020\335?\377\377\377\037\354\307\335?\377\377\377_x\251\336?\000\000\000 Nb\337?\000\000\000\000\\B\340?\000\000\000 M\250\340?\000\000\000\200\177\275\340?\000\000\000\240`\326\340?\000\000\000`9\322\340?\000\000\000\000\032\221\340?\000\000\000`\214&\340?\000\000\000@\177\"\337?\377\377\377_jK\336?\000\000\000\200\343^\334?\000\000\000@\036{\333?\000\000\000\300\3662\332?\000\000\000\200\237\002\331?\000\000\000\240\264<\330?\377\377\377?\250\010\330?\000\000\000\200\361z\330?\000\000\000\3401S\330?\377\377\377\377)T\331?\377\377\377\277\315\202\330?\377\377\377\177>\353\330?\000\000\000\300&&\332?\000\000\000\300\036 \332?\000\000\000\300\251\275\332?\000\000\000\000|\373\332?\000\000\000@\331i\333?\000\000\000`W\333\333?\000\000\000\000\321\277\334?\000\000\000 \304\257\334?\000\000\000\300k\026\335?\377\377\377\237\016\345\335?\377\377\377\377X\020\336?\377\377\377\237\272<\336?\377\377\377?1\376\335?\377\377\377\177Jt\336?\000\000\000\200W\263\336?\000\000\000\0003\371\336?\000\000\000@E\235\337?\000\000\000\340\035\010\340?\000\000\000\300\2462\340?\000\000\000\300\\>\340?\000\000\000@\326U\340?\000\000\000\000\024f\340?\000\000\000\200=\212\340?\000\000\000\200\005\215\340?\000\000\000\300\\\203\340?\000\000\000 E\202\340?\000\000\000\200\007v\340?\000\000\000\300b\207\340?\000\000\000\200\354\224\340?\000\000\000\000\"\215\340?\000\000\000``\240\340?\000\000\000\000\311\216\340?\000\000\000\340\234m\340?\000\000\000\340\233\230\340?\000\000\000\340\342|\340?\000\000\000\000\353\203\340?\000\000\000\340/{\340?\000\000\000\200\252}\340?\000\000\000\300\364{\340?\000\000\000\200{h\340?\000\000\000`-w\340?\000\000\000\240\344K\340?\000\000\000\200\2413\340?\000\000\000\340\322D\340?\000\000\000\240\272\035\340?\000\000\000\200z,\340?\000\000\000`!\377\337?\000\000\000@\323\035\340?\377\377\377\237\301\311\337?\000\000\000\200\326\324\337?\000\000\000@J\323\337?\000\000\000\340g?\337?\377\377\377\037r\177\336?\000\000\000@EL\336?\000\000\000`h&\336?\377\377\377\337\326\307\335?\377\377\377\237\320\353\335?\377\377\377\237NR\335?\000\000\000@\005\014\335?\000\000\000\240\361\265\334?\377\377\377\037+[\334?\000\000\000\000\221\031\334?\000\000\000@T\217\333?\000\000\000\340\305d\333?\000\000\000@@W\333?\000\000\000@\301\323\332?\377\377\377?x\372\332?\377\377\377?-\276\332?\000\000\000\200\236\247\332?\377\377\377?kj\332?\000\000\000`\0313\332?\377\377\377\337e3\332?\377\377\377\277Q\001\332?\000\000\000\240l\361\331?\000\000\000`\022\207\331?\377\377\377\177z\234\331?\000\000\000\300{\246\331?\000\000\000\000\264\260\331?\377\377\377?\375o\331?\000\000\000@\034\252\331?\000\000\000\300`_\331?\377\377\377\377\346\314\331?\377\377\377\177K\317\331?\000\000\000\200m\205\335?\377\377\377\277Y\205\336?\377\377\377\177\001\254\334?\000\000\000@\233\345\333?\377\377\377\237\r\000\334?\377\377\377?z\364\333?\000\000\000\200o8\334?\000\000\000\000\267\337\334?\377\377\377\377+\321\334?\000\000\000\200]\236\335?\377\377\377?5\035\336?\000\000\000\300j\202\336?\000\000\000@\231\254\336?\377\377\377\277\226\357\336?\000\000\000\000w\303\336?\377\377\377\377(\336\337?\000\000\000\000[.\340?\377\377\377\237\000\321\337?\000\000\000\000@^\340?\000\000\000 Fn\340?\000\000\000\200c\234\340?\000\000\000\240f\271\340?\000\000\000 \006q\340?\000\000\000 \310Y\340?\000\000\000\340pA\340?\000\000\000\000\277e\340?\000\000\000\200\036[\340?\000\000\000`\3756\340?\000\000\000@\3000\340?\000\000\000`\333F\340?\000\000\000\340\177;\340?\000\000\000 \032F\340?\000\000\000@w3\340?\000\000\000`\347\033\340?\377\377\377\037*-\321?\377\377\377_\177V\321?\000\000\000@\210\250\321?\000\000\000\300\2501\322?\000\000\000 \317\227\322?\000\000\000`\331\231\323?\000\000\000 \023\216\324?\000\000\000\300\257\276\325?\000\000\000\0006\364\326?\377\377\377?\242\253\327?\377\377\377\277\223\260\330?\377\377\377\277\230A\331?\377\377\377\037*\226\332?\000\000\000`\032\262\333?\000\000\000\340\177\216\334?\000\000\000\200\223z\335?\377\377\377\177Kl\336?\377\377\377\037^\221\337?\000\000\000\300L\n\340?\000\000\000\000\3349\340?\000\000\000\240&p\340?\000\000\000\000t\207\340?\000\000\000\000\206V\340?\000\000\000@\214p\337?\377\377\377\277\007\036\336?\000\000\000\300j\340\334?\377\377\377?7\375\333?\377\377\377\277\217\250\331?\000\000\000\200$\250\330?\377\377\377\037\347\361\327?\000\000\000\340DW\327?\000\000\000\200\316\262\327?\000\000\000\000\003\250\327?\377\377\377_7\244\330?\377\377\377\037#\376\327?\377\377\377\277\023#\330?\000\000\000\0008H\330?\000\000\000\300\242d\331?\000\000\000\300\263o\332?\000\000\000\000~\026\332?\377\377\377\377\"\330\332?\377\377\377\177\374\276\332?\000\000\000\200\233K\333?\000\000\000@Q\255\333?\377\377\377\337\326\247\334?\000\000\000\000\270H\334?\000\000\000\200#\333\334?\000\000\000\300d\353\334?\000\000\000@T/\335?\000\000\000\000\201.\335?\000\000\000\300\247\360\335?\377\377\377\377#\262\336?\377\377\377\177\277y\337?\377\377\377?\375\375\337?\000\000\000\000\0161\340?\000\000\000 ^C\340?\000\000\000\240\337Y\340?\000\000\000\300\335|\340?\000\000\000\340\345\201\340?\000\000\000\200\321\214\340?\000\000\000\340\014\214\340?\000\000\000\200\374\222\340?\000\000\000\300\034\212\340?\000\000\000\200r\256\340?\000\000\000`\237\241\340?\000\000\000\300&\311\340?\000\000\000@\372\301\340?\000\000\000\200\020\257\340?\000\000\000 \\\310\340?\000\000\000\340\003\274\340?\000\000\000\200\276\242\340?\000\000\000@\301\204\340?\000\000\000\340-\205\340?\000\000\000 \264s\340?\000\000\000\300\201P\340?\000\000\000\300_&\340?\000\000\000 \353R\340?\000\000\000\340\016+\340?\000\000\000`\363\"\340?\377\377\377\237\016\361\337?\000\000\000\340\242\034\340?\000\000\000 \327j\337?\377\377\377\277\304!\337?\377\377\377\177\277U\337?\000\000\000\000\323\t\340?\377\377\377\177\271\250\337?\377\377\377\377\355\310\337?\377\377\377\177\n^\337?\000\000\000 \231u\336?\377\377\377_nN\336?\377\377\377\337a:\336?\000\000\000`\341\202\335?\000\000\000\200\354C\335?\000\000\000@\301\270\335?\000\000\000@\237O\335?\377\377\377\177G\365\334?\000\000\000\300\361\240\334?\377\377\377\277\025T\334?\377\377\377?\345\360\333?\377\377\377\377\343\022\334?\377\377\377?(\034\333?\000\000\000\240\255\005\333?\000\000\000@I\314\332?\000\000\000\200P\253\332?\377\377\377\237\374\332\332?\377\377\377_\263\243\332?\377\377\377\237\005P\332?\377\377\377\377\034\270\331?\377\377\377\277\014\317\331?\377\377\377?8L\331?\000\000\000\240\361\311\330?\377\377\377?p6\331?\000\000\000\200\036\342\330?\377\377\377?\356\345\330?\377\377\377\037\032\363\330?\377\377\377_t\276\330?\000\000\000\200\330\303\330?\377\377\377\177;\354\330?\377\377\377?\360v\330?\000\000\000@\332\343\330?\000\000\000@\216\271\336?\377\377\377\377\241\241\336?\000\000\000\300\371\304\335?\377\377\377\037\034\212\334?\000\000\000\000\200J\333?\000\000\000\340\305\305\331?\377\377\377\377\332R\330?\377\377\377\237\177V\327?\000\000\000\240\363\'\327?\377\377\377\337MP\327?\377\377\377\1773\213\327?\377\377\377?\367^\330?\377\377\377\377Q \331?\000\000\000\000\005\221\332?\000\000\000`\024\237\333?\000\000\000`M\002\335?\000\000\000\240/\r\336?\377\377\377\237\304\245\337?\000\000\000\000SO\340?\000\000\000\300\247\274\340?\000\000\000`#\025\341?\000\000\000 \205\002\341?\000\000\000 /\315\340?\000\000\000`\325\\\340?\377\377\377\277\202f\337?\000\000\000@\304Z\334?\000\000\000\200\017\301\331?\000\000\000@I\031\331?\377\377\377\177<5\331?\377\377\377\377_`\331?\377\377\377\277\212\211\331?\377\377\377\377\022j\331?\000\000\000\000\200e\331?\000\000\000@_9\331?\377\377\377\177w\216\331?\000\000\000\200W%\332?\377\377\377\377a\205\332?\000\000\000@ \370\332?\000\000\000\200\230Z\333?\377\377\377\277\227\373\333?\000\000\000\000\360D\334?\377\377\377\177\212\244\334?\000\000\000\000\307\367\334?\377\377\377\037\264&\335?\000\000\000@\301I\335?\000\000\000```\335?\377\377\377\337V\244\335?\377\377\377\277\204\r\336?\377\377\377\177B\223\336?\377\377\377\277\202\332\336?\000\000\000`\"\207\337?\377\377\377_\200\257\337?\377\377\377\377\241\316\337?\000\000\000\000\264\026\340?\000\000\000 \r;\340?\000\000\000`1P\340?\000\000\000\340jl\340?\000\000\000@_}\340?\000\000\000`\352\207\340?\000\000\000\2005\212\340?\000\000\000`d\226\340?\000\000\000\200\207\236\340?\000\000\000 \223\227\340?\000\000\000\340\316\250\340?\000\000\000\340\276\234\340?\000\000\000 \367\223\340?\000\000\000 6\260\340?\000\000\000\200\341\265\340?\000\000\000`\255\212\340?\000\000\000\340e\205\340?\000\000\000\000\325\206\340?\000\000\000\2408\216\340?\000\000\000\200t{\340?\000\000\000`\030\211\340?\000\000\000@us\340?\000\000\000`-`\340?\000\000\000\200 g\340?\000\000\000@\"P\340?\000\000\000\340b;\340?\000\000\000\000\3209\340?\000\000\000\000\024\032\340?\000\000\000\340\373\017\340?\000\000\000`^\036\340?\000\000\000@\000\020\340?\000\000\000@\241\364\337?\377\377\377\377R\205\337?\000\000\000\300n\033\337?\377\377\377\377\255W\336?\377\377\377\377k\326\335?\377\377\377_5\254\335?\377\377\377\277T\204\335?\000\000\000 \022G\335?\377\377\377?\257\003\335?\000\000\000`\227\315\334?\000\000\000@\021~\334?\000\000\000@\214)\334?\377\377\377\037h)\334?\000\000\000\240+\327\333?\377\377\377\377\337\260\333?\000\000\000 \212^\333?\000\000\000@H\035\333?\000\000\000`\331\362\332?\000\000\000\340\376\177\332?\000\000\000\240\356)\332?\000\000\000\340\006\034\332?\000\000\000\240\364\361\331?\000\000\000\000E\250\331?\000\000\000@ \002\332?\000\000\000`\025\023\332?\000\000\000\300j\006\332?\377\377\377\037\244\372\331?\377\377\377_\257\202\331?\000\000\000\200[\343\331?\000\000\000\300/\304\331?\000\000\000\200\326\340\331?\000\000\000\200\017{\333?\377\377\377\337WA\331?\377\377\377\277\021\211\334?\000\000\000\340t+\332?\377\377\377\237\272\006\332?\000\000\000\340\362\014\332?\000\000\000 =\026\332?\377\377\377\377W\303\331?\000\000\000@\177\241\331?\000\000\000\200\016\271\331?\377\377\377\277L\273\331?\377\377\377\037,!\331?\000\000\000`f\021\331?\377\377\377\037\332\333\330?\000\000\000\240g\373\330?\000\000\000\300\377Z\330?\377\377\377\337NC\330?\000\000\000\000}C\330?\000\000\000\3003\034\330?\000\000\000\200\026\360\327?\377\377\377\177<p\327?\377\377\377\237\373-\327?\000\000\000\300\276\325\326?\000\000\000\300\301\211\326?\000\000\000\340\3647\326?\000\000\000\200\240q\326?\377\377\377\377bA\326?\000\000\000\240\353\037\326?\000\000\000\240w\342\325?\377\377\377\337\226\320\325?\377\377\377\277Wh\325?\377\377\377\177\374e\325?\377\377\377\277\331\260\325?\377\377\377?\345\270\325?\377\377\377_\261t\325?\000\000\000 \375X\325?\377\377\377\277B~\325?\377\377\377\377dC\325?\377\377\377\0375D\325?\000\000\000\200Nt\325?\377\377\377\277\004\260\325?\000\000\000\000J\232\325?\377\377\377\377\034\307\325?\377\377\377_4\252\325?\000\000\000\200\234\342\325?\000\000\000@\327\201\325?\000\000\000 S\235\325?\000\000\000@\305\246\325?\377\377\377\277\014\267\325?\377\377\377?\370\333\325?\000\000\000\3408\337\325?\000\000\000`\007)\326?\000\000\000\000\264{\326?\377\377\377\177}\216\326?\377\377\377\277\303\302\326?\000\000\000\300A\341\326?\000\000\000\000=\302\326?\377\377\377\177\210%\327?\377\377\377\277\330\033\327?\000\000\000\240\026h\327?\000\000\000`\022\237\327?\377\377\377\037!\273\327?\000\000\000\000\261#\330?\377\377\377\177\001c\330?\000\000\000\240\350:\330?\000\000\000 \321_\330?\000\000\000\340+\207\330?\000\000\000\000\376\211\330?\377\377\377\037\341z\330?\000\000\000\000\003v\330?\377\377\377?8\240\330?\377\377\377\177\001\204\330?\000\000\000\200\255\246\330?\000\000\000\200\256b\330?\377\377\377?\351]\330?\377\377\377?*O\330?\377\377\377\277MT\330?\377\377\377\037\336\261\330?\000\000\000@\200\334\330?\377\377\377\277\227\226\330?\000\000\000\2408\226\330?\377\377\377\337\322|\330?\000\000\000\300\345\274\330?\000\000\000\200\332\331\330?\000\000\000@O\316\330?\000\000\000\200W\340\330?\000\000\000 7\267\330?\377\377\377\037\361\346\330?\000\000\000\300\336/\331?\377\377\377\377Wo\331?\000\000\000\000P3\331?\000\000\000 7\270\331?\000\000\000\340\267\312\331?\377\377\377\037c\276\331?\000\000\000\200\027\326\331?\000\000\000\340u\317\331?\000\000\000`\216\244\331?\377\377\377?\350\021\332?\377\377\377_:\025\332?\000\000\000\300`S\332?\377\377\377\377\025\202\332?\377\377\377?\366\306\332?\377\377\377\277O\376\332?\000\000\000\200\216\"\333?\377\377\377\177\362:\333?\000\000\000@U\220\333?\000\000\000`\336u\333?\000\000\000\000\273l\333?\377\377\377\237\205\254\333?\377\377\377?\275\231\333?\000\000\000\340|\002\334?\000\000\000 \030\017\334?\377\377\377?\351\003\334?\000\000\000\340u;\334?\000\000\000\240\265W\334?\000\000\000\300.P\334?\000\000\000\300\342r\334?\000\000\000\000\200i\334?\000\000\000\000\001\205\334?\000\000\000\240\336y\334?\000\000\000@\017\244\334?\377\377\377\277\020N\334?\000\000\000\200\261>\334?\000\000\000`\241\326\327?\000\000\000\300\036\327\327?\377\377\377\377\332\317\327?\377\377\377\237}\252\327?\377\377\377\237\r\320\327?\000\000\000`\036\342\327?\000\000\000@\005\324\327?\377\377\377\177\310\274\327?\000\000\000\340\355\333\327?\000\000\000`\020\306\327?\000\000\000@BL\330?\377\377\377?o\250\327?\000\000\000@\227\213\327?\000\000\000\340\204M\327?\000\000\000\3404i\327?\000\000\000@\0221\327?\377\377\377\037)\005\327?\377\377\377\177\2669\327?\377\377\377\277K\243\326?\377\377\377\237\316\220\326?\000\000\000@\377\243\326?\377\377\377\037\032l\326?\000\000\000\300\370M\326?\000\000\000\200\022)\326?\377\377\377\177\303\375\325?\000\000\000\000O\351\325?\000\000\000\340\310x\325?\000\000\000\2000<\325?\000\000\000\200\345U\325?\000\000\000\300,e\325?\000\000\000\000\201E\325?\000\000\000\300v\345\324?\000\000\000@\221\360\324?\377\377\377\037\244\375\324?\377\377\377\037b\203\325?\000\000\000\340v_\325?\000\000\000\200\344w\325?\000\000\000@\332\022\325?\377\377\377\277\335?\325?\000\000\000\340\356C\325?\377\377\377\377\3509\325?\000\000\000\300\240A\325?\377\377\377\177\007>\325?\377\377\377\277\0216\325?\000\000\000\300\263Q\325?\000\000\000\300\273\241\325?\000\000\000\000\305\226\325?\000\000\000\000\006\253\325?\000\000\000\000\t\031\326?\377\377\377\277\310\227\326?\000\000\000\2405\310\326?\000\000\000`a\332\326?\000\000\000\200\3557\327?\000\000\000@\204Y\327?\377\377\377\037b\213\327?\377\377\377\337\321\005\330?\000\000\000\0009\377\327?\377\377\377\277L\020\330?\377\377\377\377&X\330?\377\377\377\277\221h\330?\000\000\000\000PU\330?\000\000\000\000z\224\330?\000\000\000@\024\257\330?\000\000\000\200\222&\331?\377\377\377\177\302\020\331?\000\000\000\240&G\331?\000\000\000\240\353?\331?\000\000\000@\231\367\330?\377\377\377\377\031N\331?\000\000\000@\233:\331?\000\000\000\340BU\331?\000\000\000\240\230g\331?\377\377\377\237<@\331?\377\377\377?=\017\331?\377\377\377\377i\005\331?\377\377\377\037q>\331?\000\000\000@E1\331?\000\000\000\000~\022\331?\000\000\000\300~N\331?\000\000\000\240\347f\331?\000\000\000\340v2\331?\377\377\377\277\303\014\331?\377\377\377\237\372Y\331?\000\000\000\240^B\331?\377\377\377\177\377\257\331?\000\000\000\240\370\325\331?\377\377\377\037\243\251\331?\377\377\377_4\365\331?\377\377\377\277\217\353\331?\000\000\000\000\271\336\331?\000\000\000@\021\013\332?\000\000\000\300\2463\332?\377\377\377\377\325\\\332?\377\377\377_\264\221\332?\377\377\377\277\t\333\332?\000\000\000`\311\000\333?\000\000\000\200O\030\333?\000\000\000\200\331\"\333?\377\377\377\277\232G\333?\377\377\377\337\323f\333?\000\000\000\300\347\331\333?\377\377\377\337\323\031\334?\000\000\000\000\276Y\334?\377\377\377?{\214\334?\000\000\000`\336\264\334?\000\000\000\200 \307\334?\000\000\000\300;\327\334?\000\000\000\300\275\377\334?\377\377\377\177\275\001\335?\000\000\000\240h\r\335?\377\377\377\377\342\r\335?\377\377\377\277\306\036\335?\000\000\000`\333\021\335?\000\000\000\240*P\335?\377\377\377\037hb\335?\000\000\000\240yr\335?\000\000\000\000\017w\335?\377\377\377\277\326b\335?\000\000\000@\032o\335?\000\000\000\300r\201\335?\000\000\000@\030\356\325?\377\377\377\277\216\r\326?\000\000\000\340\007\035\326?\000\000\000\300,\033\326?\377\377\377\277JH\326?\377\377\377\337\237I\326?\000\000\000\000\020h\326?\000\000\000\300\2544\326?\000\000\000\300&{\326?\000\000\000@L\306\326?\000\000\000@\006\r\327?\377\377\377\277\332\036\327?\000\000\000\300\301u\327?\377\377\377\1773\254\327?\377\377\377_\204L\330?\377\377\377\277U\361\327?\000\000\000\340\275H\330?\377\377\377\177\262\367\327?\377\377\377\177\004\016\330?\377\377\377\377\037\371\327?\377\377\377_\372\335\327?\000\000\000\000D\253\327?\377\377\377?\252\216\327?\377\377\377\377[n\327?\000\000\000@\213\251\327?\377\377\377?\357\211\327?\000\000\000\200`\274\327?\000\000\000\200le\327?\377\377\377\177u\362\326?\000\000\000@!\375\326?\000\000\000`\0073\327?\000\000\000\240\360%\327?\000\000\000\300\364\230\327?\377\377\377\377\252 \327?\377\377\377\377\232\303\327?\377\377\377\377R\216\327?\000\000\000\300\265\301\327?\377\377\377\377\344\321\327?\000\000\000\000\267\211\327?\000\000\000@B\324\327?\377\377\377\177\311\270\327?\000\000\000\000\213v\330?\000\000\000@\006r\330?\000\000\000\240\245\300\327?\377\377\377\377)\225\327?\377\377\377?\363\215\327?\000\000\000\200\255\271\327?\000\000\000\300/\313\327?\000\000\000\340\251p\327?\377\377\377_m\325\327?\377\377\377?\271\355\327?\000\000\000\000\010\361\327?\000\000\000`\316\375\327?\000\000\000\000\374-\330?\000\000\000\000P1\330?\000\000\000\000\360\031\330?\377\377\377\037)\370\327?\000\000\000\300.\333\327?\000\000\000\200!\013\330?\377\377\377\177\307N\330?\000\000\000`\2425\330?\377\377\377\377\031`\330?\000\000\000\200&,\330?\000\000\000\200\233\036\330?\000\000\000`\2259\330?\000\000\000\000PI\330?\000\000\000\240\340\363\327?\000\000\000@J\364\327?\377\377\377_\366\362\327?\377\377\377\177\270\360\327?\000\000\000\200m\001\330?\000\000\000\200\251\001\330?\000\000\000\000\277\377\327?\000\000\000@]\351\327?\377\377\377\277\025\005\330?\000\000\000 \214&\330?\000\000\000\300\"\372\327?\000\000\000@\027\005\330?\377\377\377\037p\363\327?\000\000\000\000\212(\330?\377\377\377\337L\002\330?\000\000\000\200\341\005\330?\377\377\377?\254Z\330?\000\000\000@\026Q\330?\377\377\377?\347V\330?\000\000\000@\315{\330?\000\000\000 F\247\330?\377\377\377\177\364^\330?\000\000\000\200\360\224\330?\000\000\000\000\267\364\330?\377\377\377\177\000\315\330?\377\377\377?-s\331?\377\377\377?x \331?\377\377\377\277\327\037\331?\377\377\377?\362\013\331?\000\000\000\340\246\377\330?\000\000\000\300{H\331?\377\377\377\237\216)\331?\000\000\000`\020Y\331?\377\377\377\277\221i\331?\377\377\377\377\242S\331?\000\000\000\200\036h\331?\000\000\000@\220\031\331?\377\377\377\277\024B\331?\000\000\000\200\033\014\331?\377\377\377\177;*\331?\377\377\377\177\212\350\330?\000\000\000\200\223i\331?\000\000\000\000\321\325\327?\377\377\377_m\310\327?\000\000\000\340)\312\327?\000\000\000 \205\326\327?\000\000\000\300w\350\327?\377\377\377\177\t\352\327?\377\377\377?0\321\327?\377\377\377\237\010\272\327?\000\000\000@\030\224\327?\000\000\000\300\257\227\327?\000\000\000`\341\241\327?\000\000\000\3009_\327?\377\377\377\377]^\327?\000\000\000@\214\025\327?\377\377\377\037^\311\326?\000\000\000\000\006\333\326?\000\000\000\000\207\265\326?\000\000\000\200Tv\326?\000\000\000\200\330e\326?\377\377\377\377\230C\326?\000\000\000\200j\022\326?\000\000\000@\236\354\325?\000\000\000\240\332\371\325?\377\377\377\177\215\275\325?\000\000\000@\321\211\325?\000\000\000\000\303k\325?\000\000\000\300iN\325?\000\000\000 w-\325?\000\000\000\300@\026\325?\000\000\000`K\020\325?\377\377\377\377\223\376\324?\000\000\000\300\245\363\324?\377\377\377\177\377\346\324?\377\377\377\377Y\361\324?\377\377\377?$\365\324?\000\000\000\300(\360\324?\000\000\000\000\260\362\324?\000\000\000@\021 \325?\000\000\000\340\371 \325?\377\377\377\237\204+\325?\377\377\377\277\032:\325?\377\377\377\277\212B\325?\000\000\000@\302\026\325?\377\377\377\237\320\036\325?\377\377\377\337\213\000\325?\377\377\377\377\242\374\324?\000\000\000 \010\326\324?\377\377\377\277\203\330\324?\000\000\000\240\027\330\324?\000\000\000\200S\310\324?\377\377\377\1777\276\324?\377\377\377\377\352\232\324?\000\000\000\000\213\231\324?\377\377\377\177D\217\324?\000\000\000\200\255z\324?\000\000\000\300\201x\324?\000\000\000 K\222\324?\000\000\000 }`\324?\377\377\377\177\003b\324?\377\377\377\277C<\324?\000\000\000\000\261G\324?\377\377\377\177H]\324?\000\000\000\340\361e\324?\377\377\377\177\010z\324?\000\000\000@\r\223\324?\377\377\377\277\030\240\324?\377\377\377\337`\242\324?\000\000\000@\316\237\324?\000\000\000\300+\272\324?\377\377\377_*\316\324?\377\377\377\377\"\361\324?\377\377\377\277O\347\324?\377\377\377?z\016\325?\000\000\000\300\2365\325?\000\000\000\200_T\325?\000\000\000\200eP\325?\000\000\000\300\256Z\325?\000\000\000\000\2634\325?\377\377\377?k>\325?\000\000\000`!^\325?\377\377\377\337\025z\325?\377\377\377\377\035~\325?\000\000\000\340\274\t\325?\377\377\377\277\316\r\325?\377\377\377\237\276\032\325?\377\377\377\377\250s\325?\000\000\000 \311:\325?\000\000\000\000M\036\325?\377\377\377\037[\341\324?\377\377\377\037\3518\325?\000\000\000 Cs\325?\377\377\377\377\336\224\325?\377\377\377\277In\325?\377\377\377\337\223v\325?\377\377\377\377\254\222\325?\377\377\377\277\002p\325?\000\000\000`\335\275\325?\377\377\377_\205:\325?\377\377\377\277O\362\324?\000\000\000`e\223\324?\377\377\377\377T2\324?\000\000\000\3003\311\323?\377\377\377\037g\r\324?\377\377\377\377g\277\323?\377\377\377\277\014\201\323?\000\000\000\000\002/\323?\377\377\377?\262\312\322?\377\377\377\277\324\301\322?\377\377\377_\300\336\322?\377\377\377\277\206\337\322?\377\377\377\277\304\272\322?\000\000\000\300\257\236\322?\000\000\000\200\\i\322?\377\377\377\377\247h\322?\000\000\000\000\277q\322?\000\000\000\240\'\211\322?\000\000\000`gd\322?\000\000\000\000qp\322?\000\000\000@\014Q\322?\377\377\377\377\247X\322?\377\377\377\177\272\334\322?\377\377\377\337\340\316\322?\000\000\000@\277\327\322?\000\000\000\200\247\250\322?\377\377\377\1776\242\322?\377\377\377?8v\322?\000\000\000\300\367\263\322?\377\377\377\177F\245\322?\000\000\000 ;\214\322?\000\000\000\300bE\322?\000\000\000\000\007a\322?\000\000\000\340gY\322?\377\377\377?\266`\322?\000\000\000@\2018\322?\377\377\377?e\335\321?\377\377\377\337`\250\321?\000\000\000\000\272{\321?\377\377\377\277C8\321?\000\000\000 \316\027\321?\377\377\377\377g%\321?\000\000\000`\332\003\321?\000\000\000\240q\031\321?\000\000\000\340\255\030\321?\000\000\000\240Y\373\320?\377\377\377\377X\332\320?\000\000\000 ~\303\320?\000\000\000\000I\277\320?\000\000\000\000\274\321\320?\000\000\000 B\327\320?\377\377\377\277\004\270\320?\377\377\377\177\013\377\320?\377\377\377\277\222\365\320?\000\000\000\300\244\036\321?\000\000\000@\233P\321?\000\000\000\000QW\321?\000\000\000\200Q~\321?\377\377\377\277\227\216\321?\377\377\377?<\231\321?\000\000\000\200p\301\321?\377\377\377_p\315\321?\000\000\000\200l2\322?\377\377\377?c\375\321?\000\000\000`\313$\322?\000\000\000\300xY\322?\000\000\000 \224T\322?\000\000\000\000\201D\322?\000\000\000\000\206\267\322?\000\000\000`\036\236\322?\000\000\000`\221Y\322?\377\377\377\277\307u\322?\377\377\377\277\330\270\322?\377\377\377?(\315\322?\000\000\000@S\310\322?\000\000\000\340k\257\322?\000\000\000\300\344\211\322?\377\377\377\037\340\261\322?\377\377\377?\346\327\322?\000\000\000@\000\321\322?\377\377\377\237\n\025\323?\377\377\377\377\022H\323?\377\377\377_2_\323?\000\000\000\200\324h\323?\377\377\377?.\317\323?\377\377\377\277\003\345\323?\377\377\377\177\3061\324?\000\000\000@\032y\324?\377\377\377?\255\243\324?\000\000\000\000N\320\324?\000\000\000\300\3751\325?\000\000\000@\022R\325?\000\000\000\200\353\230\325?\377\377\377\377\255\232\325?\377\377\377?\250\355\325?\377\377\377\377UO\326?\000\000\000\300\273\242\326?\377\377\377\277\031\350\326?\377\377\377\177\263<\327?\000\000\000\300%%\327?\000\000\000\300wA\327?\377\377\377\237C/\327?\000\000\000 \026W\327?\000\000\000\300\1770\327?\377\377\377?\3749\327?\000\000\000\300\370>\327?\000\000\000\2408X\327?\377\377\377\177\013I\327?\000\000\000\300\343c\327?\000\000\000`\030W\327?\377\377\377\377\026R\327?\000\000\000\240\367h\327?\000\000\000\200\223d\327?\000\000\000`\331R\327?\000\000\000@\212k\327?\377\377\377?o`\327?\000\000\000\200\250\254\327?\377\377\377\177?\257\327?\000\000\000\340>\022\330?\377\377\377?\250\377\327?\000\000\000@\033\264\327?\000\000\000\200\337\253\327?\377\377\377\237\374_\327?\000\000\000@\316\322\327?\377\377\377\277\235N\327?\000\000\000@\322f\327?\377\377\377\037\2661\327?\377\377\377_\201\372\326?\377\377\377\277\035\337\326?\000\000\000\240h7\327?\000\000\000\200\244\026\327?\000\000\000\200Z\303\326?\377\377\377?\365\356\326?\377\377\377\377\222\000\327?\377\377\377\377\237\023\327?\377\377\377\377UA\327?\000\000\000\200dr\327?\000\000\000\300ge\327?\000\000\000\200\021\210\327?\000\000\000\200\320W\327?\377\377\377\177\366_\327?\377\377\377?ok\327?\000\000\000\240\347\344\324?\000\000\000@\306C\325?\000\000\000\200\350M\325?\000\000\000\000\272,\325?\000\000\000\240$2\325?\000\000\000\300\363*\325?\377\377\377\237\001\374\324?\000\000\000@\215\342\324?\000\000\000\200\023\276\324?\377\377\377\277\333\304\324?\000\000\000` \361\324?\000\000\000\000\210\234\324?\000\000\000\000\202\327\324?\000\000\000\000}\016\325?\000\000\000\240\261\343\324?\000\000\000\340\260\274\324?\377\377\377\037$d\324?\377\377\377\277\r\363\323?\000\000\000 E\017\324?\000\000\000@\214\353\323?\000\000\000 |\315\323?\000\000\000\300\257\265\323?\000\000\000\200\340|\323?\377\377\377\337\332?\323?\000\000\000\000\310\353\322?\377\377\377\237\t\321\322?\377\377\377\377e\265\322?\000\000\000\300$\241\322?\377\377\377\377\333\205\322?\000\000\000`\314\201\322?\000\000\000\000\263v\322?\000\000\000\0004\215\322?\000\000\000\200i\264\322?\000\000\000\300\256\345\322?\000\000\000\200\261\357\322?\000\000\000\200\241\022\323?\000\000\000@\222>\323?\000\000\000\200\026I\323?\000\000\000@K^\323?\377\377\377\237~\300\323?\000\000\000\000p\334\323?\377\377\377\337\217\372\323?\377\377\377\037,\r\324?\000\000\000\240*C\324?\377\377\377\377Y:\324?\000\000\000@\226:\324?\377\377\377\177\363\026\324?\000\000\000\200\324(\324?\000\000\000\300\242D\324?\377\377\377\1776-\324?\000\000\000@LX\324?\000\000\000\300\374R\324?\377\377\377\177K-\324?\000\000\000 S\"\324?\000\000\000\200\3366\324?\377\377\377\177\313D\324?\377\377\377_\002.\324?\000\000\000\340\276P\324?\000\000\000\000\007b\324?\000\000\000\000\001{\324?\000\000\000\340\000\203\324?\377\377\377_\001\262\324?\000\000\000@\033\350\324?\377\377\377\277\022\017\325?\000\000\000`hQ\325?\377\377\377\177\001`\325?\000\000\000\240v\247\325?\000\000\000`\210\227\325?\000\000\000\240i\003\326?\377\377\377\237~\014\326?\000\000\000\200*-\326?\000\000\000\300j\\\326?\377\377\377\1775o\326?\377\377\377\377\244\310\326?\000\000\000\300\242\265\326?\000\000\000 \225\351\326?\377\377\377_\252H\327?\000\000\000\300\252F\327?\377\377\377\277\212\\\327?\377\377\377_\364\225\327?\000\000\000\300\267\250\327?\000\000\000\200R\317\327?\377\377\377\277\213\325\327?\377\377\377?\356\217\327?\000\000\000\000B\264\327?\000\000\000@D\264\327?\377\377\377\377k\277\327?\377\377\377?\243\200\327?\377\377\377?9\256\327?\377\377\377?\344\233\327?\000\000\000@P`\327?\000\000\000\340\003\226\327?\377\377\377\277P\211\327?\377\377\377\377,\"\327?\377\377\377\037\361N\327?\377\377\377\277\302\032\327?\377\377\377\177@.\327?\000\000\000\300\201\036\327?\377\377\377\037c+\327?\000\000\000\240i\326\326?\377\377\377\177\263\245\326?\377\377\377?\261i\326?\000\000\000@\315d\326?\000\000\000\000\202\032\326?\377\377\377\177~1\326?\000\000\000\3002\372\325?\377\377\377_o\033\326?\377\377\377\337\232\340\325?\377\377\377\277W\201\325?\377\377\377?4\177\325?\000\000\000@\023\215\325?\377\377\377_8\204\325?\000\000\000\0000\227\325?\000\000\000 \210\227\325?\000\000\000\200\032\254\325?\000\000\000\200\326\300\325?\377\377\377\177\206\300\325?\377\377\377\277\316\324\325?\377\377\377\037,\326\325?\377\377\377\277\035\325\325?\000\000\000`%\227\324?\377\377\377\037ky\324?\000\000\000\000\013\223\324?\000\000\000\000Kz\324?\377\377\377\177v\265\324?\377\377\377\277\231j\324?\000\000\000@\332 \324?\000\000\000@\207P\324?\000\000\000\300\246A\324?\000\000\000\340//\324?\377\377\377\177\177\337\323?\377\377\377\177y\245\323?\000\000\000\200\022s\323?\377\377\377\177\303\214\323?\377\377\377?\264W\323?\000\000\000\3009\326\322?\000\000\000\000\366\227\322?\000\000\000@\033\205\322?\377\377\377\277\\\366\321?\377\377\377\177\306\364\321?\000\000\000\000~\331\321?\000\000\000\200\356\252\321?\377\377\377\377\250\263\321?\000\000\000\000\317\202\321?\377\377\377\177u^\321?\000\000\000\200T@\321?\000\000\000`Z+\321?\377\377\377\037\337(\321?\377\377\377\237\322\007\321?\000\000\000\340\246\n\321?\377\377\377?\375\'\321?\000\000\000@\311#\321?\000\000\000\200\234g\321?\000\000\000\300\345T\321?\000\000\000@\214\231\321?\000\000\000\200\244\200\321?\000\000\000\200X\233\321?\000\000\000\000p\247\321?\377\377\377\277R\247\321?\377\377\377\377\230\224\321?\000\000\000\200O\231\321?\000\000\000\200\232\364\321?\000\000\000\340\247\013\322?\377\377\377\377i\r\322?\000\000\000\240q\037\322?\000\000\000 L\003\322?\377\377\377\377\340\364\321?\377\377\377\037\264\330\321?\000\000\000@\023\345\321?\000\000\000\340g\013\322?\000\000\000\240\254\225\321?\377\377\377\377e\241\321?\377\377\377\277K\235\321?\000\000\000\300}\217\321?\000\000\000\200\340\245\321?\000\000\000\0007\223\321?\000\000\000\000\374\204\321?\000\000\000\200W\222\321?\377\377\377?\374\230\321?\377\377\377\377\353\257\321?\000\000\000`I\266\321?\000\000\000\340\373\320\321?\000\000\000 @\325\321?\000\000\000@\n\302\321?\000\000\000\340r\273\321?\000\000\000\300\366\005\322?\000\000\000\300\377\376\321?\377\377\377\03708\322?\377\377\377\377\342k\322?\377\377\377\277\226\306\322?\377\377\377\277\024\336\322?\000\000\000\240\334p\323?\000\000\000\300~\263\323?\000\000\000\200\327\315\323?\000\000\000`\340\244\323?\000\000\000\300\373\340\323?\377\377\377?\353\342\323?\377\377\377\337\0311\324?\000\000\000\000xO\324?\377\377\377\377\024\037\324?\377\377\377\377\254\213\324?\000\000\000`\243\372\323?\377\377\377\177\267)\324?\377\377\377\177\201*\324?\000\000\000 \001\364\323?\377\377\377\277K\241\323?\000\000\000\000\270\252\323?\377\377\377\277E}\323?\000\000\000@E>\323?\377\377\377?\257?\323?\377\377\377\277Hd\323?\377\377\377\277S\002\323?\377\377\377\277\334\333\322?\000\000\000\000\320\215\322?\000\000\000@N\263\322?\000\000\000\000\004c\322?\377\377\377\177s\030\322?\377\377\377_\370\352\321?\000\000\000`Q\332\321?\000\000\000\000\263\251\321?\377\377\377\277\210\327\321?\000\000\000 \026\236\321?\000\000\000 yj\321?\377\377\377\177\313K\321?\000\000\000\200\2177\321?\000\000\000`\330l\321?\000\000\000\340\366\036\321?\000\000\000\340\377\347\320?\000\000\000\200a\352\320?\000\000\000@\036\321\320?\000\000\000\340j\t\321?\000\000\000\0002\021\321?\000\000\000\000\273@\321?\000\000\000`f\346\320?\000\000\000\000\002B\321?\000\000\000 \005/\321?\377\377\377\177F@\321?\000\000\000@\3167\321?\000\000\000@\315+\321?\377\377\377\277\021b\330?\377\377\377_q[\330?\000\000\000`\013k\330?\000\000\000\000\301c\330?\377\377\377\037\363L\330?\000\000\000\240\370Q\330?\000\000\000\200\233a\330?\000\000\000\000L^\330?\000\000\000\000\372+\330?\377\377\377\377\034\014\330?\377\377\377\277\307\027\330?\377\377\377\277H\331\327?\000\000\000\340\246\343\327?\000\000\000@ \244\327?\377\377\377?p\240\327?\377\377\377\277\010\250\327?\000\000\000\000\270C\327?\377\377\377?\245,\327?\000\000\000\240i\347\326?\377\377\377\277\222\313\326?\000\000\000@\304\222\326?\000\000\000\240s[\326?\000\000\000\240\037E\326?\377\377\377\277\227\035\326?\000\000\000@\335\017\326?\377\377\377?\275\001\326?\377\377\377\277F\323\325?\377\377\377\277\311\354\325?\000\000\000\200]\340\325?\000\000\000\300\354\353\325?\000\000\000`\244\343\325?\000\000\000\240\337\363\325?\000\000\000@\201\345\325?\000\000\000 C\361\325?\000\000\000\0002\346\325?\000\000\000\200\326\356\325?\000\000\000\340l\351\325?\377\377\377?.\352\325?\000\000\000\000\374\357\325?\377\377\377\337\226\347\325?\377\377\377\377\327\362\325?\000\000\000@\327\337\325?\000\000\000\200\221\325\325?\377\377\377_\362\303\325?\000\000\000\000<\271\325?\000\000\000\200_\244\325?\000\000\000\200\221\231\325?\000\000\000\000\277\201\325?\000\000\000\200\340\217\325?\000\000\000\300\275p\325?\000\000\000\340\304\200\325?\000\000\000\300\343G\325?\000\000\000\340x0\325?\000\000\000`\006.\325?\000\000\000\300y\002\325?\000\000\000\200\242\345\324?\377\377\377\277\213\352\324?\000\000\000\000\257\350\324?\377\377\377\277\203\344\324?\377\377\377\177A\316\324?\377\377\377\377\347x\324?\377\377\377\377\355\226\324?\000\000\000\300%_\324?\000\000\000\300\377\240\324?\377\377\377_-\270\324?\377\377\377\377l\246\324?\377\377\377?\363\334\324?\377\377\377\377\232\262\324?\000\000\000\340>\035\325?\000\000\000\300\177\r\325?\000\000\000\000\311U\325?\000\000\000\240\260Y\325?\000\000\000@\026\226\325?\000\000\000@\025\346\325?\377\377\377\277\213\251\325?\000\000\000\2001\361\325?\000\000\000@V\014\326?\377\377\377\277\332\024\326?\377\377\377\377\0302\326?\000\000\000\000\214\"\326?\377\377\377\037hW\326?\377\377\377\177\271$\326?\000\000\000@C\357\325?\377\377\377?+\177\325?\000\000\000`\323\211\325?\377\377\377\377\2223\325?\000\000\000\200\254\322\324?\377\377\377\037p\376\324?\377\377\377\177?\360\324?\000\000\000`$\273\324?\377\377\377\177\207l\324?\000\000\000@\033\236\324?\000\000\000\000\264#\324?\000\000\000\000N\005\324?\000\000\000@\376\212\323?\377\377\377\277\016\204\323?\000\000\000@\324`\323?\377\377\377\177\215%\323?\377\377\377\377\332@\323?\000\000\000\300?G\323?\377\377\377?2\352\322?\000\000\000\200d\014\323?\000\000\000@\026u\322?\377\377\377\237\300k\322?\377\377\377\377\247O\322?\000\000\000@GL\322?\377\377\377\177\003\372\321?\000\000\000@\224\306\321?\377\377\377\277\222\313\321?\000\000\000``\217\321?\377\377\377\377[\313\321?\377\377\377\277\002\213\321?\000\000\000\000P}\321?\377\377\377\277Wn\321?\000\000\000\300.W\321?\000\000\000@C;\321?\377\377\377\177\267o\321?\000\000\000\000\273u\321?\000\000\000\340DY\321?\000\000\000\300au\321?\377\377\377\177\200\334\325?\000\000\000\000\266\321\325?\000\000\000\0009\322\325?\000\000\000\200\227\347\325?\000\000\000\240u\351\325?\000\000\000\300\2660\326?\377\377\377\277QW\326?\377\377\377\037\234t\326?\377\377\377\037\346\213\326?\377\377\377\237\376\357\326?\377\377\377\377\253\013\327?\377\377\377\177\265D\327?\377\377\377\037\337V\327?\377\377\377\337\322\244\327?\000\000\000\200\361\362\327?\000\000\000\3406\034\330?\000\000\000 >M\330?\377\377\377?2`\330?\377\377\377\177Hi\330?\377\377\377\337dl\330?\377\377\377\277\026\252\330?\000\000\000\200\026\260\330?\377\377\377?\360\340\330?\377\377\377\377*\001\331?\377\377\377\237I\'\331?\000\000\000`WM\331?\377\377\377?51\331?\377\377\377\337\341f\331?\000\000\000\300\341L\331?\000\000\000\200Nz\331?\000\000\000@\204`\331?\000\000\000\000\313Z\331?\377\377\377\177\002M\331?\000\000\000 <+\331?\000\000\000\340\377\022\331?\377\377\377_\275\273\330?\377\377\377\237\315\223\330?\000\000\000\300\271\\\330?\377\377\377?8`\330?\000\000\000\200,G\330?\377\377\377\237\217^\330?\377\377\377\277\310\212\330?\000\000\000@\322w\330?\000\000\000\300\271\201\330?\377\377\377\337U\225\330?\000\000\000\340s\266\330?\377\377\377\377j\004\331?\377\377\377?m\t\331?\377\377\377\277\0215\331?\377\377\377\337\213i\331?\000\000\000@\177|\331?\000\000\000`\031\277\331?\000\000\000\240-\353\331?\377\377\377\177\374\003\332?\000\000\000\000\3710\332?\377\377\377\037rO\332?\000\000\000\000\264g\332?\377\377\377\237\223\237\332?\377\377\377\237\222\254\332?\000\000\000\200\334\322\332?\377\377\377\277\331\335\332?\000\000\000\240+\325\332?\377\377\377\277\021\340\332?\000\000\000`!\323\332?\377\377\377\377[\302\332?\000\000\000`\310\236\332?\377\377\377\377`\241\332?\000\000\000@\005n\332?\000\000\000\240\350t\332?\000\000\000`P\\\332?\377\377\377\177;H\332?\377\377\377_\2666\332?\000\000\000 \376A\332?\377\377\377\237\200W\332?\000\000\000@\376\233\332?\000\000\000\340s\346\332?\377\377\377\277\223\036\333?\000\000\000\200\331\215\333?\000\000\000\240\354m\334?\000\000\000\300%\300\334?\377\377\377\377\353?\335?\000\000\000\300.-\335?\000\000\000`Mq\335?\377\377\377?=\315\335?\000\000\000 \222\236\335?\000\000\000@\031\354\335?\000\000\000\300n\362\335?\000\000\000 \267\326\335?\000\000\000\300a;\336?\000\000\000\200\0324\336?\000\000\000 \275U\336?\377\377\377\337Ku\336?\377\377\377\277QY\336?\000\000\000 \377A\336?\000\000\000 \370{\336?\000\000\000`\033z\336?\377\377\377\237P!\336?\000\000\000 \204%\336?\000\000\000\300\336H\336?\000\000\000\200e\000\336?\377\377\377\277\017\366\335?\000\000\000\240\345\356\335?\000\000\000\240\337\024\336?\377\377\377\037\037\036\336?\377\377\377\037\034\032\336?\377\377\377\337\220D\336?\377\377\377?#d\336?\000\000\000\200\"U\336?\000\000\000`\031t\336?\377\377\377?\262;\336?\000\000\000\200\350S\336?\377\377\377?\367)\336?\000\000\000\240^ \336?\000\000\000\300A\000\336?\000\000\000`^\324\335?\377\377\377?=\226\335?\377\377\377\337_\214\335?\377\377\377?\352i\335?\377\377\377\337\333\\\335?\377\377\377\037iV\335?\000\000\000\000H\367\325?\377\377\377?<\371\325?\000\000\000\300\363\377\325?\000\000\000\0003#\326?\377\377\377\377\343\363\325?\377\377\377\237\303\026\326?\000\000\000\340yC\326?\377\377\377?5\200\326?\377\377\377?\365|\326?\377\377\377?o\237\326?\000\000\000\000\177\312\326?\000\000\000\200%\341\326?\000\000\000\000\264\035\327?\377\377\377\17796\327?\377\377\377?\"\231\327?\000\000\000`\031[\327?\000\000\000`\336\321\327?\377\377\377\177\375\363\327?\000\000\000\240\360\021\330?\000\000\000\200m;\330?\000\000\000@\016\273\330?\377\377\377\1774\213\330?\000\000\000\000\265\257\330?\000\000\000\340\377\304\330?\377\377\377\277S\263\330?\000\000\000\0009\267\330?\000\000\000\000z\235\330?\000\000\000\240v\212\330?\000\000\000\200*{\330?\000\000\000\300x_\330?\000\000\000\340)\200\330?\000\000\000`b+\331?\000\000\000 {\026\331?\000\000\000\000/Y\331?\000\000\000\000E\311\330?\000\000\000\300(\276\330?\000\000\000@\330\337\330?\000\000\000@]\330\330?\377\377\377\237\312\365\330?\000\000\000\200\027\025\331?\377\377\377_s\344\330?\000\000\000\200\231\365\330?\377\377\377?\253\252\330?\000\000\000\200q\325\330?\000\000\000\240\032\341\330?\377\377\377\337\342\007\331?\000\000\000\000\001\314\330?\000\000\000@\325\003\331?\000\000\000@\025\357\330?\000\000\000\3009 \331?\000\000\000\000qv\331?\377\377\377\337\341\215\331?\377\377\377?v\342\331?\000\000\000\340\374\363\331?\000\000\000\200e\032\332?\377\377\377?44\332?\377\377\377\337^z\332?\377\377\377\277M~\332?\377\377\377\377\342\250\332?\000\000\000@Y\275\332?\377\377\377\237\224\257\332?\000\000\000\240\360\226\332?\377\377\377\377\350v\332?\377\377\377\377\336\217\332?\000\000\000\200\034\213\332?\377\377\377?\271\240\332?\000\000\000`\350\217\332?\377\377\377\277Q\212\332?\377\377\377\177\rH\332?\000\000\000@\217N\332?\377\377\377?z\"\332?\000\000\000\000\3577\332?\377\377\377?\"<\332?\000\000\000\200\234}\332?\377\377\377\177\272\204\332?\000\000\000`a\261\332?\000\000\000\000\2770\333?\000\000\000@\316\\\333?\377\377\377?#\207\333?\000\000\000\200\023\374\333?\000\000\000\200O#\334?\000\000\000@R\276\334?\377\377\377\277U\305\334?\000\000\000\200\332\374\334?\000\000\000\200*1\335?\000\000\000 \275y\335?\377\377\377\277\317>\335?\000\000\000@\241@\335?\000\000\000@\010j\335?\000\000\000\300+\233\335?\000\000\000\300\371u\335?\377\377\377\177\210q\335?\377\377\377\237\201\211\335?\000\000\000\200\032\240\335?\377\377\377\177L\235\335?\000\000\000\0002\307\335?\377\377\377?m\302\335?\000\000\000@\003\270\335?\377\377\377\177s\251\335?\000\000\000\200\257\263\335?\000\000\000\340\261X\335?\000\000\000`\\\212\335?\377\377\377\337\213\267\335?\377\377\377\377in\335?\000\000\000@\013\020\335?\000\000\000 Jq\335?\000\000\000`I\363\335?\377\377\377\177\277|\336?\377\377\377\337\342\036\336?\377\377\377_3-\336?\000\000\000\000~\021\336?\000\000\000\000\276\315\335?\000\000\000@\322\261\335?\000\000\000\300\272\221\335?\377\377\377\177\303o\335?\000\000\000@\022o\335?\000\000\000\200\017#\335?\377\377\377_\375F\335?\000\000\000@??\335?\377\377\377\337\037\007\335?\377\377\377\1778\237\323?\000\000\000\240n\226\323?\000\000\000\200Z\242\323?\000\000\000\200\354\233\323?\377\377\377\177\373\n\323?\377\377\377\277\r\'\323?\000\000\000\340\361\022\323?\000\000\000\0000\033\323?\377\377\377_}\245\322?\377\377\377\377\232\002\322?\377\377\377\237=\317\321?\000\000\000\300\277\275\321?\377\377\377?\373\314\321?\000\000\000\300\375\336\321?\000\000\000 \023\\\321?\377\377\377\037\266;\321?\000\000\000\200\323\035\321?\000\000\000 \n4\321?\377\377\377\237\216\346\320?\000\000\000`\317\276\320?\377\377\377\0372&\321?\000\000\000\000A6\321?\377\377\377\237\006\002\321?\377\377\377\377\342V\321?\000\000\000\300A\201\321?\000\000\000\000\002\251\321?\000\000\000`F\341\321?\000\000\000\300t5\322?\000\000\000\300\352\322\322?\000\000\000\240\240\274\320?\377\377\377?m2\321?\377\377\377_\304\341\322?\000\000\000\3406q\323?\000\000\000`i*\324?\377\377\377\037\242\350\324?\377\377\377\177\376\236\325?\000\000\000\200P\224\325?\377\377\377\177\010G\326?\377\377\377\277\315N\327?\377\377\377?\245\002\327?\377\377\377\177\262c\327?\000\000\000@\202|\327?\377\377\377\337\224L\327?\377\377\377\377\346b\327?\000\000\000\000},\327?\000\000\000\340\3511\327?\377\377\377\337O\003\327?\377\377\377\237\223\r\326?\377\377\377_\254<\324?\377\377\377\177\200\r\324?\377\377\377\337\320\240\323?\000\000\000\000\301\276\322?\000\000\000\200P\267\322?\000\000\000`\243\376\321?\000\000\000\200\345\227\321?\377\377\377\277\307a\321?\000\000\000 \307\"\321?\377\377\377\237\007C\321?\377\377\377\237\023;\321?\377\377\377?hA\321?\000\000\000\340i&\321?\377\377\377?\271\033\321?\377\377\377?#\340\320?\000\000\000\200\032\315\320?\377\377\377\277F\333\320?\377\377\377\377\343\305\320?\000\000\000\240\362W\320?\377\377\377_AP\320?\377\377\377\177yQ\320?\000\000\000\300a\212\320?\000\000\000@J\324\320?\000\000\000@\316\373\320?\000\000\000\000\tB\321?\377\377\377\177\006\307\321?\000\000\000``a\322?\000\000\000\200\326\307\322?\377\377\377_m\357\322?\000\000\000\200X>\323?\377\377\377\237\215L\323?\000\000\000 Ab\323?\377\377\377\377\341\247\323?\377\377\377?&\273\323?\000\000\000 K\344\323?\000\000\000\300\364\275\324?\000\000\000@\210\337\324?\000\000\000\200\021\205\325?\000\000\000\200\336~\325?\000\000\000\000\257\216\325?\377\377\377?\363\203\325?\000\000\000\340\371\014\326?\000\000\000 \006\232\326?\377\377\377?\345~\326?\377\377\377\377\327\025\326?\000\000\000\340\352\215\325?\377\377\377\177\315i\326?\377\377\377_\263:\326?\377\377\377\177\212\312\325?\000\000\000\300lQ\325?\377\377\377\177s\177\324?\000\000\000\000\3136\323?\377\377\377\377\326+\324?\000\000\000\000\213\215\323?\000\000\000\300\274\356\322?\000\000\000\340\204\354\322?\377\377\377\177\r\264\322?\377\377\377\377\353\214\322?\000\000\000\300\371w\322?\000\000\000@HA\322?\000\000\000`T2\322?\000\000\000\240!V\322?\000\000\000\000\t\032\322?\377\377\377\177<\263\321?\000\000\000\240\233\316\321?\000\000\000\200\322\354\321?\377\377\377\377b\010\322?\377\377\377\377\354\334\321?\377\377\377\337P\261\321?\377\377\377?\'\220\321?\000\000\000\000\002D\322?\377\377\377?\246\026\322?\000\000\000\300e\017\323?\377\377\377\277\006\311\322?\000\000\000\3004\257\322?\377\377\377\337^\320\321?\377\377\377?y\356\320?\000\000\000`\327\276\316?\375\377\377\177\002\207\314?\375\377\377\337\022\227\312?\377\377\377\037(\216\311?\377\377\377\377\334\342\307?\377\377\377\277J\323\306?\376\377\377_f\241\307?\375\377\377\237E0\312?\000\000\000`\240\264\315?\000\000\000\000<!\321?\377\377\377?\373u\322?\000\000\000@\322)\324?\377\377\377\377\250@\325?\377\377\377\277\005@\326?\000\000\000\200+\033\327?\377\377\377\277\314T\327?\000\000\000 Cc\327?\377\377\377?o\202\327?\377\377\377\177It\327?\000\000\000\000\213\253\327?\377\377\377?\265\355\327?\000\000\000\000E:\330?\377\377\377\337Tg\330?\000\000\000@\235P\330?\000\000\000\000\375j\330?\000\000\000\340\207\201\330?\000\000\000\300gJ\330?\377\377\377\177\362\271\327?\000\000\000`\033\371\330?\377\377\377\277\233=\332?\377\377\377\337\022>\332?\000\000\000\200&\t\333?\000\000\000\340@\014\333?\000\000\000\200\261\002\333?\377\377\377\177\206\276\333?\377\377\377\277\322\320\333?\000\000\000\200`\344\334?\377\377\377\337\034\253\334?\000\000\000\300?\357\327?\377\377\377\337\"\307\327?\000\000\000\000\2208\326?\000\000\000@\tP\325?\000\000\000\000\261)\325?\000\000\000\000\272\335\324?\000\000\000 \031D\324?\000\000\000\300\346\263\323?\377\377\377\377\032\331\322?\000\000\000`\212\254\322?\377\377\377?n~\322?\377\377\377?\351W\322?\000\000\000@\032\014\322?\377\377\377\377\033\257\321?\377\377\377\237\021\033\321?\377\377\377\337K%\321?\000\000\000\200`x\320?\000\000\000@J\023\320?\000\000\000\200.\341\317?\375\377\377\377( \317?\377\377\377\377pB\317?\377\377\377?\302$\317?\375\377\377\037)P\317?\376\377\377\177^\220\317?\376\377\377\237p\316\317?\000\000\000\200\016\027\320?\377\377\377\277\312\002\320?\000\000\000\000\205\202\320?\000\000\000\300\037\232\320?\000\000\000@\316\257\320?\000\000\000\300%\031\321?\377\377\377?\3679\321?\377\377\377\177\0045\321?\377\377\377\337\037\032\321?\377\377\377\177\t$\321?\000\000\000\200&\244\321?\377\377\377\177\276\032\322?\000\000\000 \027\261\322?\377\377\377?\361m\323?\377\377\377?\243\364\322?\000\000\000\200\351\313\322?\000\000\000\000\000\014\323?\000\000\000\340j(\323?\000\000\000\300\3565\323?\000\000\000\000\216\277\323?\377\377\377\277R\006\323?\000\000\000@\333\330\322?\000\000\000\200\241I\322?\377\377\377\177\370>\321?\377\377\377_\377\007\321?\377\377\377\177G\310\320?\377\377\377\177I_\320?\377\377\377?9o\320?\000\000\000 \372q\317?\000\000\000@\002\310\316?\377\377\377\237\017\256\316?\376\377\377\377\000\007\316?\000\000\000 \267\036\316?\376\377\377\3377\263\315?\376\377\377_\\\267\315?\377\377\377\377h\225\315?\376\377\377_#\220\315?\377\377\377?\256\336\314?\000\000\000\000A\323\314?\000\000\000\3406\006\314?\377\377\377\277P\311\314?\377\377\377\237\r,\314?\377\377\377\377X\006\315?\377\377\377\177\264W\314?\376\377\377\277t\347\314?\377\377\377\277D\020\315?\375\377\377?9D\316?\377\377\377\277\312\003\320?\000\000\000\240n\016\322?\377\377\377\177\274\241\325?\377\377\377?\364\340\331?\000\000\000`e\346\335?\000\000\000\300bs\340?\000\000\000 \363,\341?\000\000\000\200\266\001\341?\000\000\000 \321\205\340?\377\377\377\237\314\216\337?\000\000\000\200`\036\337?\377\377\377?\375[\337?\000\000\000\300[\002\340?\000\000\000@\275\"\340?\377\377\377\037\237\331\337?\000\000\000 \0223\337?\000\000\000 \267\345\336?\000\000\000\300 \240\336?\000\000\000@\201R\336?\000\000\000\200+\326\335?\000\000\000 \311]\335?\000\000\000\240\227\033\335?\000\000\000\340\246\337\334?\377\377\377_\377\014\335?\377\377\377\377\233\032\335?\000\000\000`\217y\335?\000\000\000\3003\033\336?\000\000\000\340\271\331\335?\000\000\000\000\372\032\335?\000\000\000`\031\200\334?\000\000\000\300\034i\342?\000\000\000`%3\342?\000\000\000\200\317\304\341?\000\000\000 ,\360\341?\000\000\000`*\311\341?\000\000\000\300\361\367\341?\000\000\000\000sR\341?\000\000\000\300\307_\340?\377\377\377\177\364Q\334?\377\377\377\277\333\001\334?\000\000\000@X\234\333?\377\377\377_\252_\333?\000\000\000`\3063\333?\000\000\000\200\245\377\333?\377\377\377\337$\355\333?\000\000\000 \222\'\335?\000\000\000\200,\341\333?\377\377\377?\357k\336?\000\000\000\300\277\031\334?\000\000\000`\037k\333?\000\000\000\000vR\332?\000\000\000\200\2162\332?\000\000\000\000\316\256\331?\377\377\377?\245\'\331?\377\377\377?\357G\330?\000\000\000\3409D\330?\000\000\000`\240\303\327?\377\377\377?%\210\327?\000\000\000 \224\203\327?\377\377\377\377j\254\327?\377\377\377\037\252\016\330?\000\000\000\000DQ\330?\377\377\377?\352\357\330?\000\000\000@\332\007\331?\000\000\000\0000\017\331?\000\000\000\340DI\327?\000\000\000\200e/\327?\000\000\000 K\201\327?\000\000\000 \321N\332?\000\000\000\300?}\333?\377\377\377_\373\022\334?\000\000\000\340\205\244\334?\000\000\000\240c\034\335?\377\377\377\377S%\334?\377\377\377?8\033\334?\377\377\377\377\254\205\336?\000\000\000\240\037\036\335?\377\377\377_\353q\335?\000\000\000\000E\370\333?\000\000\000\300\345$\335?\377\377\377?\261\361\334?\377\377\377\177\305\355\334?\377\377\377\377Q\362\332?\377\377\377?y\315\330?\377\377\377\177\266,\331?\000\000\000\240\357\352\330?\377\377\377\037\245\304\330?\377\377\377_:4\330?\000\000\000@F\261\327?\000\000\000\200\254m\327?\377\377\377\377Y\373\326?\377\377\377\277Q}\326?\377\377\377\237\310,\326?\377\377\377_\203q\325?\000\000\000@K\306\325?\000\000\000\300,s\325?\377\377\377\377\323\030\326?\000\000\000\200+\356\325?\377\377\377\037\345\241\326?\377\377\377_\254\373\325?\000\000\000@Ap\326?\377\377\377?\356\023\327?\377\377\377\277I~\327?\377\377\377\277E\213\327?\377\377\377\277N\361\327?\000\000\000\200NG\330?\377\377\377\277\035\004\330?\377\377\377\377\332\344\327?\000\000\000\240\036\357\327?\000\000\000\300(\376\327?\377\377\377\337\337\271\327?\000\000\000\000\013\224\327?\377\377\377\237\305\276\327?\377\377\377\177\201\207\327?\377\377\377\177\300\244\327?\000\000\000\340F\260\327?\377\377\377_\000\314\327?\000\000\000@\177\002\330?\377\377\377\177\275\006\330?\377\377\377\037\250\200\330?\377\377\377\037\037\216\330?\377\377\377\377!{\330?\000\000\000\0000\302\330?\000\000\000\340,R\331?\000\000\000@\034;\331?\000\000\000\300\377T\331?\000\000\000\300\357\214\331?\000\000\000 A\355\331?\377\377\377\1774\352\331?\000\000\000\300\263\312\331?\000\000\000\3404j\332?\377\377\377\377\347\203\332?\000\000\000\300\250v\332?\377\377\377?9\271\332?\377\377\377?$\237\332?\377\377\377?kg\333?\377\377\377?b\250\332?\377\377\377\277Yo\332?\000\000\000@\236\256\332?\000\000\000`\342\320\332?\000\000\000@\027H\333?\000\000\000\300\2721\333?\000\000\000\300c$\333?\000\000\000@~\373\332?\000\000\000\300\266X\332?\000\000\000\200T\027\332?\377\377\377\277\002\341\331?\377\377\377\377hC\331?\377\377\377\237~Y\331?\377\377\377\177\302-\331?\000\000\000\200q\314\330?\000\000\000\000\364V\330?\000\000\000\3005\034\330?\377\377\377_A\351\327?\377\377\377\1775\326\327?\377\377\377\037v_\327?\377\377\377\377\3243\327?\377\377\377\337\020R\327?\377\377\377\177\t`\327?\000\000\000@\376[\327?\377\377\377\377\321(\327?\377\377\377\377e\034\330?\000\000\000\240r\262\327?\000\000\000\200m\254\330?\377\377\377\337\t\277\327?\000\000\000\000>\377\327?\000\000\000 N\005\330?\000\000\000\000CA\330?\000\000\000\000\001\177\330?\000\000\000\000L\315\330?\377\377\377_\266\255\330?\000\000\000\340\360\314\330?\377\377\377\177\201)\331?\377\377\377?\270L\331?\000\000\000\300xJ\331?\377\377\377\237\224\365\331?\000\000\000\300!#\332?\377\377\377?+\276\332?\000\000\000\300\276\257\333?\000\000\000\200\032\256\333?\377\377\377_\273\261\333?\377\377\377?\275\031\334?\000\000\000 \231q\334?\000\000\000\200\250\353\334?\377\377\377\277R\224\335?\000\000\000`\210\302\335?\000\000\000`)b\336?\377\377\377\377\346*\337?\000\000\000\000\260\374\336?\377\377\377_,a\337?\377\377\377_{\324\337?\000\000\000`R\252\337?\377\377\377\037\253\326\337?\377\377\377\337\313\346\337?\377\377\377?\260\346\337?\000\000\000`\325\313\337?\377\377\377\037.\306\337?\000\000\000`\242\026\340?\000\000\000`|\001\340?\377\377\377\237\3259\337?\377\377\377\277PY\337?\000\000\000\200\332\316\336?\000\000\000\300|\022\337?\000\000\000`S\244\337?\000\000\000\000\200\301\336?\000\000\000@\335\375\336?\000\000\000 \212\261\336?\377\377\377\237\322\255\336?\377\377\377\277\030|\336?\000\000\000\340\301\251\336?\377\377\377_\201\254\336?\377\377\377_{H\336?\377\377\377\177\377J\336?\000\000\000 \227E\336?\000\000\000\200!T\336?\000\000\000\300\346\031\336?\000\000\000\200.w\336?\377\377\377\177~\310\336?\000\000\000\000\230\333\340?\000\000\000 \005(\343?\000\000\000\340lp\342?\000\000\000\240h\"\342?\000\000\000\000\313Z\327?\377\377\377?\271\007\327?\377\377\377\177:f\327?\000\000\000\200\017=\327?\377\377\377?\364\022\327?\377\377\377\177\002M\327?\377\377\377\337\031\363\326?\377\377\377?x\334\326?\000\000\000\300v\334\326?\377\377\377\277\022\247\326?\000\000\000\200\254s\326?\377\377\377\377U4\326?\377\377\377\377\0225\326?\377\377\377\237\304\234\326?\000\000\000\300l\035\327?\377\377\377\377\022\005\327?\000\000\000\000IT\327?\000\000\000@N\224\327?\000\000\000\0008\223\327?\377\377\377\177\211\360\327?\000\000\000`\021\036\330?\000\000\000@\005j\330?\377\377\377?k\314\330?\377\377\377\037\353L\331?\000\000\000\300 Z\331?\377\377\377\177@\254\331?\377\377\377\037$\004\332?\377\377\377\03768\332?\377\377\377\037\235\224\332?\377\377\377\337\016t\332?\000\000\000\240\340\232\332?\000\000\000\000\257\243\332?\377\377\377\177A}\332?\000\000\000\000s1\332?\377\377\377\377\351\373\331?\000\000\000 \376\230\331?\377\377\377\337\\d\331?\377\377\377\377\246J\331?\000\000\000\300r\303\330?\000\000\000\200\352\177\330?\377\377\377\277\221\324\327?\377\377\377\037\\u\327?\377\377\377\277\222\026\327?\000\000\000\000K\272\326?\000\000\000\200\357D\326?\377\377\377\377\023\253\325?\377\377\377?42\325?\000\000\000\240\252\345\324?\377\377\377\177\376k\324?\377\377\377\177\370?\324?\000\000\000\200_>\324?\377\377\377\177\314\032\324?\000\000\000\340\004)\324?\377\377\377\277\203]\324?\000\000\000\300fn\324?\000\000\000\340?t\324?\000\000\000@\312{\324?\377\377\377\337\323\264\324?\000\000\000 \005\275\324?\000\000\000\000\265(\325?\000\000\000\000\273t\325?\377\377\377?l\004\325?\000\000\000\000A\343\324?\377\377\377\177M\244\324?\000\000\000\240\230\340\324?\000\000\000 \r\311\324?\000\000\000 >\355\324?\377\377\377\277\0341\325?\377\377\377\377d3\325?\000\000\000@\341\376\324?\000\000\000\200OJ\325?\000\000\000\300\241[\325?\377\377\377\277\021\276\325?\000\000\000\300<\036\326?\377\377\377?/\223\326?\377\377\377\177y\331\326?\000\000\000\000\363\370\326?\000\000\000\300\270\004\327?\377\377\377\277\223Z\327?\000\000\000\200\246\354\327?\000\000\000\300\000\026\330?\000\000\000\300?\212\330?\000\000\000\240\260\255\330?\000\000\000\240\357w\331?\000\000\000@\004\003\332?\377\377\377?k\356\331?\000\000\000@\017&\332?\377\377\377?\256\242\331?\000\000\000\240\370*\332?\000\000\000@\031\301\331?\000\000\000\200\321\314\332?\000\000\000\300\351\272\332?\000\000\000@\r\243\332?\000\000\000@\236\355\332?\000\000\000\200\332\375\332?\000\000\000\000\211\265\332?\000\000\000\300tj\332?\000\000\000@VJ\332?\377\377\377\177\363\021\332?\377\377\377_\300\r\332?\000\000\000\340C\221\331?\377\377\377\377\350\270\331?\377\377\377?oF\331?\000\000\000\300\376m\331?\000\000\000`\335\034\331?\377\377\377\1774\010\331?\377\377\377\277V\005\331?\000\000\000\300f\367\330?\377\377\377\277X\367\330?\377\377\377\037^\224\330?\000\000\000\340\271\325\330?\377\377\377\177\211\357\330?\000\000\000@\335\270\330?\377\377\377\337\026\253\330?\377\377\377?\267\267\330?\000\000\000\200\261r\330?\000\000\000 \024t\330?\377\377\377?;E\330?\000\000\000\000\204\037\330?\000\000\000\200p(\330?\377\377\377\177;\341\331?\377\377\377\377\026\331\331?\377\377\377\377\243\262\331?\000\000\000\200\220}\331?\377\377\377?pW\331?\377\377\377?\361\212\331?\377\377\377\237\301I\331?\377\377\377\177\306\"\331?\000\000\000\300?\r\331?\377\377\377\277\211\354\330?\377\377\377\177IQ\331?\000\000\000@\337Q\331?\000\000\000`\0147\331?\000\000\000\340{p\331?\000\000\000\340.x\331?\377\377\377\177\000\310\331?\377\377\377\037\343\347\331?\000\000\000\2409\377\331?\377\377\377_~D\332?\000\000\000\300\3564\332?\377\377\377\237\307u\332?\377\377\377_l\265\332?\377\377\377\377\031\037\333?\377\377\377\277\221\t\333?\000\000\000\200^A\333?\000\000\000@O\371\332?\377\377\377_lU\333?\000\000\000\000x\014\333?\000\000\000 \270\'\333?\377\377\377\277\232\021\333?\377\377\377\037\'\031\333?\000\000\000@D:\333?\000\000\000\340\253?\333?\000\000\000@\223`\333?\377\377\377?b]\333?\377\377\377\277\232\024\333?\377\377\377\177|\322\332?\000\000\000\200\017F\332?\000\000\000@E\316\331?\000\000\000\000\010e\331?\000\000\000\200\236\344\330?\377\377\377\377&\220\330?\000\000\000@\024\334\327?\000\000\000\200m\212\327?\000\000\000\340\352\362\326?\000\000\000\200d\304\326?\000\000\000\000\204\222\326?\000\000\000\30056\326?\377\377\377\1775\253\325?\000\000\000\200\342\271\325?\000\000\000 \331\247\325?\377\377\377\177F\204\325?\000\000\000@\002x\325?\000\000\000\300m\354\325?\377\377\377\377\351\256\325?\377\377\377_~\261\325?\000\000\000\300\267L\326?\377\377\377\177\010\020\326?\377\377\377\277JN\326?\000\000\000\200\261^\326?\377\377\377?9\215\326?\377\377\377?h\375\325?\000\000\000`\351r\326?\377\377\377\277\314]\326?\377\377\377_|9\326?\000\000\000\000Pg\326?\377\377\377\037.0\326?\377\377\377?q2\326?\377\377\377_\0052\326?\000\000\000@\036\036\326?\000\000\000`HD\326?\000\000\000\000\213!\326?\377\377\377\377\240u\326?\377\377\377\177\375{\326?\000\000\000\300\377\374\326?\000\000\000`^\037\327?\000\000\000`\007\016\327?\000\000\000 =2\327?\000\000\000\300a\004\330?\000\000\000\000\262#\330?\377\377\377\177L\216\330?\377\377\377\337\235\275\330?\000\000\000\200_1\331?\377\377\377_\354\346\331?\000\000\000\300i:\332?\377\377\377\037\340\261\332?\000\000\000\000\t\301\332?\000\000\000`\",\333?\377\377\377\037\263B\333?\000\000\000`\037Z\333?\000\000\000\000\363T\333?\377\377\377\237>\233\333?\000\000\000@\216\207\333?\377\377\377\037\341i\333?\377\377\377?\264f\333?\000\000\000@\333[\333?\000\000\000\240\355\024\333?\377\377\377\037nu\332?\000\000\000\300f\335\332?\000\000\000\340yo\332?\377\377\377_\002\356\331?\000\000\000\2000\330\331?\377\377\377\277\311Q\331?\377\377\377_\271\231\331?\000\000\000 ;\374\330?\377\377\377\377\2549\331?\000\000\000 }\340\330?\000\000\000\340v\324\330?\377\377\377\037\345\357\330?\000\000\000\340q\226\330?\000\000\000\300c8\330?\000\000\000@ A\330?\377\377\377\037\'h\330?\000\000\000\200N\"\330?\000\000\000\200\325\'\330?\000\000\000 P\005\330?\377\377\377\237\316\355\327?\000\000\000\000\277\r\330?\377\377\377?\243\254\327?\377\377\377\177C\274\327?"
      }
    }
  }
}
node {
  name: "normalize_element/component_1"
  op: "Const"
  device: "/device:CPU:0"
  attr {
    key: "_output_shapes"
    value {
      list {
        shape {
          dim {
            size: 2276
          }
        }
      }
    }
  }
  attr {
    key: "dtype"
    value {
      type: DT_DOUBLE
    }
  }
  attr {
    key: "value"
    value {
      tensor {
        dtype: DT_DOUBLE
        tensor_shape {
          dim {
            size: 2276
          }
        }
        tensor_content: "\000\000\000\200\333\264\321?\377\377\377\037\333\221\321?\377\377\377\277\204\030\321?\000\000\000 :\220\320?\000\000\000\000q\204\320?\377\377\377\337T8\320?\377\377\377\277\233.\320?\000\000\000\200\337\223\320?\000\000\000\200Yh\321?\000\000\000 \322G\322?\377\377\377?\375h\323?\000\000\000\300\"8\324?\000\000\000\340\271=\324?\000\000\000\300\246\376\323?\377\377\377?{\311\324?\377\377\377\277\304\353\324?\377\377\377\277\203\300\325?\377\377\377\277\nc\325?\377\377\377\337\314}\325?\000\000\000 \205[\325?\377\377\377\277\326\215\325?\377\377\377?m\227\325?\000\000\000@J\234\324?\377\377\377?+\230\323?\377\377\377_\177>\323?\377\377\377_;\223\322?\377\377\377_70\322?\000\000\000 \014\'\322?\000\000\000\340\354\004\321?\000\000\000\000\2125\321?\377\377\377?\345\020\322?\377\377\377\377\255\375\322?\000\000\000\300\252\217\322?\000\000\000\340E\216\323?\377\377\377_xM\322?\000\000\000@\r\356\323?\377\377\377?\250\277\323?\377\377\377\237\2039\323?\000\000\000@\305i\323?\000\000\000\200X3\323?\377\377\377?\254w\323?\000\000\000\300\036N\323?\377\377\377\037\241\270\323?\000\000\000 ?\226\323?\377\377\377\377\351p\323?\000\000\000\000\257\216\323?\000\000\000\300\271\227\323?\377\377\377\377\3221\324?\000\000\000\300\374\027\324?\000\000\000\300\256*\324?\000\000\000\000oJ\324?\000\000\000\300\252$\324?\377\377\377\177GN\324?\000\000\000\000q\n\324?\000\000\000\300%6\324?\000\000\000\300\036Z\324?\000\000\000\340g`\324?\377\377\377?\356%\324?\000\000\000\340\353\210\324?\000\000\000@\241\230\324?\000\000\000@\333\253\324?\000\000\000\200\223\341\324?\377\377\377\377+\233\324?\000\000\000@\024\260\324?\000\000\000@Q\276\324?\000\000\000\200eu\324?\377\377\377\177\307E\324?\000\000\000\3008O\324?\377\377\377\277\033`\324?\000\000\000\200\224\206\324?\000\000\000\000\004[\324?\377\377\377\337\225s\324?\000\000\000\300\257\010\324?\377\377\377\377\252\004\324?\377\377\377\277\215\253\323?\377\377\377?\274\010\324?\377\377\377\277\212\033\324?\000\000\000\000\364\232\323?\000\000\000@\321\242\323?\000\000\000@\340\355\323?\377\377\377\277\335\357\323?\377\377\377\177\2117\324?\377\377\377\177@\321\323?\377\377\377\377 \251\323?\000\000\000\300\260h\323?\377\377\377\377\321W\323?\000\000\000\200\3576\323?\377\377\377?9C\323?\000\000\000\000\263\200\323?\000\000\000\300\346\240\323?\000\000\000\340\177\340\323?\377\377\377\177;\302\323?\377\377\377?\243\313\323?\000\000\000\000\307y\323?\000\000\000\340@\274\323?\000\000\000\300\254\336\323?\000\000\000\000\263\352\323?\000\000\000\300\240\252\323?\377\377\377\177\000w\323?\377\377\377\277\304\352\323?\377\377\377\277\017U\323?\377\377\377_\260l\323?\377\377\377\277\002\377\322?\000\000\000\200\344\373\322?\377\377\377_\001\333\322?\000\000\000\200\357\257\322?\377\377\377\237\023\014\323?\377\377\377\277\005}\322?\000\000\000`\223r\322?\377\377\377\377\230}\322?\000\000\000\200\241\301\322?\000\000\000\300\260\255\322?\000\000\000\340\360\273\322?\000\000\000@\221$\323?\000\000\000\240\330.\323?\000\000\000\300\355\362\322?\377\377\377\377m\367\322?\000\000\000\200\234\362\322?\000\000\000\300+\273\322?\000\000\000\000\r\320\322?\000\000\000\300\370\343\321?\000\000\000\200\321i\320?\000\000\000\240\267\300\322?\377\377\377\177H\223\322?\000\000\000@\205\320\322?\377\377\377\037\355\334\322?\000\000\000@\211d\323?\377\377\377\377\340\264\323?\000\000\000\000\302\244\323?\377\377\377\037]\021\324?\000\000\000\200\316A\324?\377\377\377\177L-\324?\000\000\000`\234P\324?\000\000\000@\204F\324?\000\000\000 \374B\324?\000\000\000\340\363l\324?\377\377\377\277\026\220\324?\000\000\000 \274]\324?\000\000\000`i\235\324?\377\377\377?\364\315\324?\377\377\377\037\351>\324?\000\000\000@\\\210\324?\000\000\000@\330\261\324?\000\000\000\200\325\222\324?\377\377\377\337\243D\324?\000\000\000`\314\261\324?\377\377\377\277\227A\324?\000\000\000\300\273H\324?\377\377\377\037\032A\324?\000\000\000`\035_\324?\377\377\377\277G\037\324?\377\377\377\277\312\005\324?\377\377\377\177\271\351\323?\377\377\377\277\227\363\323?\000\000\000@\036 \331?\377\377\377\377\\\321\330?\000\000\000\300;=\330?\000\000\000\200\356T\327?\000\000\000 \013\257\326?\000\000\000@\201>\326?\000\000\000\340\3714\325?\377\377\377\037\232\361\324?\000\000\000\000\261\231\324?\000\000\000\200\241[\324?\377\377\377\177F\244\324?\000\000\000\200`\325\324?\000\000\000\000A2\325?\377\377\377?\351\202\324?\000\000\000\200\242\246\325?\377\377\377\237\204\250\325?\377\377\377\337\037F\326?\377\377\377\277\017}\326?\000\000\000\300\257K\326?\000\000\000\240W/\326?\377\377\377\277\016\255\325?\377\377\377\277\313\351\325?\377\377\377\177Jm\325?\377\377\377?;o\324?\000\000\000\200\342\324\324?\000\000\000\200\030\001\324?\000\000\000\000\374\375\323?\000\000\000 \023M\324?\377\377\377?m\365\323?\000\000\000\200j\245\324?\377\377\377\177\007\306\323?\000\000\000\000\017\006\324?\377\377\377\177\303!\324?\000\000\000\200$\237\324?\000\000\000`\225\320\323?\377\377\377_\352\337\323?\377\377\377\277\3274\324?\000\000\000@\300\033\324?\000\000\000@\034\036\324?\377\377\377?\250\260\324?\000\000\000\300\241\374\323?\377\377\377?\263\342\323?\377\377\377\337IC\324?\377\377\377\177\002\313\324?\000\000\000\200\231\251\324?\377\377\377\177\370\222\324?\000\000\000\200.\241\324?\000\000\000\200\222\n\325?\000\000\000@\303=\325?\000\000\000\300\252\205\325?\000\000\000\200\034\226\325?\377\377\377\377\332\220\325?\377\377\377\277Z\333\324?\000\000\000\300\250\214\324?\000\000\000\3006\364\324?\377\377\377\337\326\301\324?\377\377\377\237\305\220\325?\000\000\000\200\2165\325?\000\000\000\000u,\325?\000\000\000`\335O\325?\377\377\377\377\324n\325?\000\000\000\240\362b\325?\377\377\377\177v:\325?\377\377\377_~\314\324?\000\000\000\200\245\224\324?\000\000\000\0000\r\325?\377\377\377?\3712\325?\000\000\000 \020\225\324?\377\377\377\337\033m\324?\000\000\000\300\247\265\324?\000\000\000\300\240\223\324?\377\377\377\377b\320\324?\000\000\000`\350y\324?\377\377\377\377\227\245\324?\377\377\377\277P\304\324?\377\377\377\277\215\274\324?\000\000\000 \267\200\324?\377\377\377\237\303:\324?\377\377\377\277\227{\324?\377\377\377\377]\301\324?\000\000\000 \216\217\324?\377\377\377\237}\031\325?\377\377\377\037l\337\324?\377\377\377\277\017\016\324?\000\000\000`\213\240\323?\377\377\377\177\013k\323?\000\000\000\340p\307\323?\377\377\377?\266\271\323?\377\377\377\377&&\324?\000\000\000\300q\221\324?\377\377\377\277\310\315\324?\377\377\377\277\034\232\324?\000\000\000\300\000\362\324?\000\000\000\200\'\315\323?\000\000\000\000\005-\324?\000\000\000\300\366\002\324?\000\000\000\000\021\r\324?\377\377\377\277\225)\324?\000\000\000\340?K\324?\000\000\000@G\303\323?\000\000\000\300\364:\324?\377\377\377?h!\324?\377\377\377?p\256\323?\377\377\377\277J\226\323?\377\377\377\037\252\320\322?\377\377\377?o\222\322?\377\377\377\377\026\235\322?\377\377\377\337\0176\323?\000\000\000\3005\211\322?\377\377\377\277\205/\323?\377\377\377\277Kh\323?\000\000\000\200\027\005\323?\000\000\000\200\336\326\322?\000\000\000@\301!\323?\377\377\377?\'\361\322?\000\000\000`#`\323?\000\000\000@\324R\323?\377\377\377\337\035>\323?\000\000\000 \203D\323?\000\000\000@\322\177\323?\000\000\000 yY\331?\000\000\000@\033\373\330?\000\000\000@\013\307\330?\377\377\377\277\n2\330?\000\000\000@\007X\327?\000\000\000\3009\331\326?\377\377\377\237G\226\325?\000\000\000 {\213\324?\377\377\377\377$.\324?\000\000\000@\200\247\323?\377\377\377\177\371\254\323?\000\000\000\200\254\213\323?\377\377\377?\272\275\323?\377\377\377?1\277\323?\377\377\377_?\374\323?\377\377\377_w\342\323?\377\377\377?\375\376\323?\000\000\000\340p\302\323?\377\377\377?\263\371\323?\000\000\000`X\302\323?\000\000\000`\017\351\323?\000\000\000\300\246\253\323?\000\000\000\300-\377\322?\000\000\000\240\233f\323?\000\000\000\000s\330\321?\000\000\000`K0\320?\000\000\000\300\247\021\320?\377\377\377\277]\226\320?\377\377\377\177\362\033\320?\375\377\377\037h\324\317?\000\000\000\300\000\233\320?\000\000\000\300\354\273\320?\000\000\000\340?e\321?\000\000\000\200\352U\321?\000\000\000\300a\257\321?\377\377\377\277H\023\322?\377\377\377\177\376\360\321?\000\000\000\300\341!\322?\377\377\377_3p\322?\000\000\000@\001\000\322?\377\377\377?\364\204\322?\377\377\377?\363l\322?\000\000\000\200\035d\323?\000\000\000\200\327\240\323?\377\377\377\377\036\205\323?\000\000\000\200\240\313\323?\377\377\377\237\374\321\323?\000\000\000\240o\235\323?\377\377\377\277\031r\323?\377\377\377\177r\204\323?\000\000\000@U\211\323?\000\000\000\200l\201\323?\000\000\000\200\030\345\323?\377\377\377\377)\024\324?\000\000\000\200\033~\324?\377\377\377\177\204\225\324?\377\377\377\377\326*\324?\377\377\377\377\037w\324?\000\000\000\200\231\245\324?\000\000\000@\332\214\324?\377\377\377\337J\206\324?\000\000\000\000\261\235\324?\377\377\377\277\304R\324?\377\377\377_\253m\324?\377\377\377?&4\324?\377\377\377\277R;\324?\377\377\377\337\226\257\323?\000\000\000\000x\345\323?\000\000\000\000\357\037\324?\000\000\000\000\274%\324?\000\000\000\200O\312\323?\000\000\000\300>\251\323?\377\377\377\177\203\341\323?\000\000\000@[\273\323?\377\377\377\277F\374\323?\000\000\000\200Q\263\323?\377\377\377\337\230\220\323?\000\000\000\240xV\323?\000\000\000\000\257\233\323?\000\000\000\300\250\177\323?\000\000\000\3406\313\323?\000\000\000@\005-\323?\377\377\377?s`\323?\000\000\000\240\345G\323?\000\000\000\000\017?\323?\377\377\377?ff\323?\377\377\377_\203P\323?\377\377\377\177s\231\323?\000\000\000`\207\363\323?\377\377\377\337I\362\323?\377\377\377\377\344\306\323?\377\377\377\177\276\315\323?\000\000\000\300\363X\323?\000\000\000\300jN\323?\377\377\377\177F:\323?\377\377\377\337\242\244\323?\377\377\377\277L6\323?\000\000\000@a\r\323?\377\377\377?t\244\322?\000\000\000`\237\\\323?\377\377\377\237\223#\323?\377\377\377?h\323\322?\377\377\377\177\311\223\322?\000\000\000\300\375\330\322?\000\000\000\000\221\325\322?\377\377\377\377\322\250\322?\377\377\377\377V\312\322?\000\000\000@D\333\322?\000\000\000\000\305J\322?\000\000\000@G\023\323?\000\000\000\200\251\244\322?\000\000\000\000o\374\322?\000\000\000@\234\261\322?\000\000\000\300\373\007\323?\377\377\377?\272\365\322?\377\377\377?s\340\323?\377\377\377?\247\352\323?\000\000\000\200pK\324?\377\377\377?\260\233\325?\000\000\000`V9\325?\000\000\000\000zs\325?\377\377\377\177C\255\325?\377\377\377_}p\325?\000\000\000\000\013\224\325?\377\377\377\377\230\304\325?\000\000\000@\021\250\325?\000\000\000\340\352\243\325?\000\000\000@\205x\326?\377\377\377_wF\326?\377\377\377\237\004C\326?\000\000\000@\313m\326?\000\000\000\300\000\243\326?\000\000\000`\321L\326?\000\000\000@\030\027\326?\000\000\000@\031d\326?\377\377\377\237\213\014\326?\000\000\000@\223\007\326?\000\000\000\200W\253\325?\377\377\377\277\335*\325?\000\000\000@WF\325?\000\000\000\200b\213\324?\377\377\377\377\321H\324?\377\377\377_\256\322\323?\377\377\377?x\237\323?\000\000\000`\'\254\323?\000\000\000 \024\214\323?\377\377\377?\351\322\322?\377\377\377\177\205\266\322?\377\377\377\377m,\323?\377\377\377\177\266\357\322?\000\000\000\300A\340\322?\000\000\000\340\007\r\323?\377\377\377\277B]\323?\377\377\377?\273}\323?\000\000\000\000v\t\323?\000\000\000 \005\213\323?\000\000\000\000G\003\323?\377\377\377\277P!\323?\377\377\377?tS\323?\000\000\000\200\3366\323?\000\000\000@Ka\323?\000\000\000\300\251\030\323?\000\000\000@\314F\323?\377\377\377\277\3215\323?\000\000\000@\305\025\323?\377\377\377\177\t\341\322?\000\000\000@\206\375\322?\000\000\000\000\n\253\322?\000\000\000\200V\023\323?\377\377\377\377j\025\323?\377\377\377\237\007\t\323?\377\377\377\177\303\213\323?\377\377\377\037m\010\323?\000\000\000\340u3\323?\377\377\377\037\345\311\323?\000\000\000\300\270y\323?\377\377\377\237\206\370\323?\377\377\377\377\252\004\324?\377\377\377\177\201l\324?\000\000\000\340F\303\324?\000\000\000\200\330\324\324?\000\000\000 \220\254\324?\000\000\000@\340\366\324?\000\000\000\200\360\207\324?\377\377\377\337\033\205\324?\000\000\000@O\266\324?\377\377\377\377\3353\324?\377\377\377\377\335\020\324?\000\000\000\300\255\377\323?\000\000\000\300.\n\324?\000\000\000\200+\320\323?\000\000\000\200\3259\324?\000\000\000\340B\227\324?\377\377\377_8C\324?\000\000\000\000re\324?\000\000\000\200\235\215\324?\000\000\000@\211 \324?\000\000\000\000r\300\324?\377\377\377\037\341\272\324?\000\000\000\200\353}\324?\377\377\377\277Ue\324?\000\000\000\200ZF\324?\000\000\000\300\354\354\323?\000\000\000\240c}\324?\000\000\000\000\t\312\324?\000\000\000\200\344=\324?\000\000\000@N\310\324?\000\000\000\0002\305\324?\000\000\000\300\367a\324?\377\377\377\377\034J\324?\000\000\000\300ck\324?\377\377\377\337\016_\324?\377\377\377\177\3013\324?\000\000\000@\304\310\324?\377\377\377\377 `\324?\000\000\000\200\023x\324?\000\000\000`M\251\324?\377\377\377\177\tn\324?\000\000\000@\037\317\324?\377\377\377_\002`\324?\377\377\377?\257\231\324?\377\377\377\377\323\300\324?\000\000\000@\212\347\324?\377\377\377\237\300\214\325?\000\000\000\240\255\300\325?\000\000\000\200^O\325?\000\000\000\300\301[\325?\000\000\000\300\364\240\325?\000\000\000\300\244%\325?\377\377\377?+\311\325?\000\000\000\24072\325?\377\377\377\377\340+\325?\377\377\377\237\306{\325?\377\377\377?%\215\325?\000\000\000\300\241R\325?\377\377\377\237\322B\325?\377\377\377?\251\036\325?\000\000\000\300\247\026\325?\377\377\377\277\202\352\331?\377\377\377\377\227\003\332?\377\377\377?i\333\331?\000\000\000\300\036A\332?\377\377\377?;o\332?\377\377\377\277N=\332?\000\000\000\200PA\332?\377\377\377?\250*\332?\000\000\000`\036.\332?\377\377\377\277\316S\332?\377\377\377\177\307R\332?\000\000\000@\030\241\332?\377\377\377?\352\031\332?\000\000\000 K\235\332?\000\000\000@\221\355\331?\000\000\000\300\375@\332?\000\000\000\200\340\274\331?\000\000\000\000\201\272\331?\377\377\377\237@&\331?\000\000\000\000\367\r\331?\000\000\000\000\372v\330?\000\000\000`\243\000\330?\000\000\000\000\205\257\327?\000\000\000`\010\373\326?\000\000\000\200\'\260\326?\377\377\377\377\036\366\325?\000\000\000\000\004I\326?\377\377\377\277\327\310\325?\000\000\000\000\303\337\325?\377\377\377\177u\335\325?\000\000\000\300\252\216\325?\000\000\000\300:\177\325?\000\000\000\000\216\230\325?\000\000\000\340\376\274\325?\377\377\377\177\377B\325?\000\000\000\300\251\206\325?\377\377\377\177rD\325?\000\000\000\240\333n\325?\000\000\000\200QG\325?\000\000\000\200\2609\325?\000\000\000@ML\325?\000\000\000 J]\325?\000\000\000\000\274`\325?\000\000\000@F\007\325?\000\000\000@\277(\325?\377\377\377?9\200\325?\377\377\377?\374\n\325?\000\000\000\300;*\325?\000\000\000\000\314S\325?\377\377\377\177\264\377\324?\377\377\377\277O)\325?\000\000\000\300cZ\325?\377\377\377\237\374\351\325?\377\377\377\277J\322\325?\377\377\377\277\322\327\325?\377\377\377\277\203b\326?\000\000\000\300\342\027\326?\377\377\377\177\302\261\325?\000\000\000 Y$\326?\000\000\000@\376\316\326?\377\377\377_\360Z\327?\000\000\000\000\2576\327?\000\000\000\200XU\330?\377\377\377\377\234>\327?\000\000\000\000\311\201\327?\000\000\000\300\2575\326?\000\000\000\200\\D\327?\000\000\000\200g\014\330?\377\377\377\337VI\327?\000\000\000@~\024\330?\377\377\377_>\262\326?\377\377\377?}\264\326?\000\000\000\200\347Z\327?\000\000\000\300\264\375\326?\377\377\377?\273B\327?\000\000\000@\324\375\326?\377\377\377_\202\241\326?\000\000\000@\314\035\327?\377\377\377\377\027\213\327?\377\377\377\177\277\257\327?\377\377\377?x4\327?\000\000\000\300\246\013\327?\000\000\000@\010f\327?\000\000\000@\220h\327?\377\377\377_\003\201\327?\377\377\377\277\322\347\327?\000\000\000\3003D\327?\377\377\377\277\0236\327?\000\000\000\300=,\327?\377\377\377?}\222\327?\000\000\000\240\026{\327?\377\377\377\377\031c\327?\377\377\377\177\202\264\327?\000\000\000\200cP\327?\000\000\000\300{k\327?\000\000\000\300f.\327?\377\377\377\277\021\023\327?\377\377\377\277\312:\327?\377\377\377_\3059\327?\377\377\377\037u%\327?\377\377\377\277\334P\327?\000\000\000\200\016m\327?\377\377\377?<d\327?\000\000\000\300/I\327?\000\000\000@\r|\327?\377\377\377\337\2373\327?\000\000\000\000PH\327?\000\000\000\300\270\222\327?\377\377\377\177>\220\327?\377\377\377_\367\274\327?\377\377\377?\266\220\327?\000\000\000@]\234\327?\377\377\377?\362\250\327?\000\000\000\240\326\313\327?\377\377\377\277N\311\327?\000\000\000\200\017\260\327?\000\000\000\340\355\255\327?\000\000\000\0001\210\327?\377\377\377\277U\232\327?\000\000\000\300\200\243\327?\000\000\000\200\244\"\333?\377\377\377\377T\013\333?\000\000\000@\3266\333?\000\000\000\200\216\n\333?\377\377\377\377\032(\333?\377\377\377\237?/\332?\000\000\000@]\t\332?\377\377\377\337\324\256\332?\377\377\377\1775\013\332?\377\377\377\377\242\327\331?\377\377\377\377\340\225\331?\377\377\377?\265Y\331?\377\377\377\277W\210\331?\377\377\377\177\007\330\331?\000\000\000\300_\341\330?\377\377\377\337S\017\331?\000\000\000\200\235j\331?\000\000\000\340\002`\331?\000\000\000\000\376?\331?\000\000\000@\013\037\331?\000\000\000`\317%\331?\000\000\000\300\242\350\330?\000\000\000\200\036\221\330?\000\000\000\340\377\235\330?\377\377\377\037\252\253\330?\000\000\000\0004L\330?\377\377\377?\245\355\327?\377\377\377_\262\335\327?\377\377\377?f.\330?\000\000\000`Fx\330?\000\000\000\240\232\231\330?\377\377\377\337Z\010\330?\377\377\377?:4\330?\000\000\000\300\266-\330?\377\377\377?\365\016\330?\377\377\377\337V\334\327?\000\000\000\300\267\031\330?\377\377\377_\201\376\327?\377\377\377\0371\223\330?\000\000\000\000\206\234\327?\377\377\377\177\312\025\330?\000\000\000@\027\306\326?\000\000\000\340j.\327?\000\000\000\240`\006\330?\000\000\000\300p\200\330?\000\000\000\300\360\332\327?\377\377\377?.\224\330?\377\377\377\337T_\330?\377\377\377\377S^\330?\000\000\000\000\211\233\330?\377\377\377?\346\260\330?\000\000\000\200cU\331?\377\377\377\177\377\275\330?\000\000\000`\3304\331?\377\377\377?\242\'\331?\000\000\000@\311\021\331?\377\377\377\177w4\331?\377\377\377\277\007\202\331?\377\377\377\277\206\271\331?\000\000\000`\3360\331?\377\377\377\337\332\241\331?\377\377\377\177\202c\330?\377\377\377\037\234\303\330?\377\377\377?\261\316\330?\377\377\377?\253p\331?\000\000\000\300a8\331?\000\000\000\3402\303\331?\000\000\000@\322\017\332?\377\377\377\377R\240\331?\377\377\377\277\010x\331?\377\377\377\177G\305\331?\377\377\377\177E.\331?\000\000\000\340\365z\331?\000\000\000\000\211\361\331?\000\000\000\300\256\033\332?\377\377\377\037Z|\331?\000\000\000\240\030S\332?\000\000\000@R^\331?\000\000\000\000\377V\331?\000\000\000\000\001[\331?\000\000\000\300\264|\332?\000\000\000@\323\023\332?\377\377\377?-\221\332?\000\000\000\240i\320\331?\000\000\000\2409u\331?\000\000\000@\207Z\331?\000\000\000\200\3464\331?\377\377\377\277\021;\331?\377\377\377\277\030\026\332?\000\000\000\2407n\331?\000\000\000@\023\364\327?\000\000\000\200\232+\327?\000\000\000\240v\324\326?\000\000\000\3003\004\331?\000\000\000\200\232m\331?\377\377\377\177\301n\330?\000\000\000 \370Q\331?\000\000\000\000/\353\331?\000\000\000@\031*\331?\000\000\000`Mf\331?\377\377\377?\261\252\331?\377\377\377\377\237\330\330?\000\000\000\300\366\351\330?\377\377\377\337P?\331?\000\000\000 \tZ\331?\377\377\377\177\265W\331?\377\377\377\177<s\331?\377\377\377?\265\231\330?\377\377\377\177\301\201\325?\000\000\000\200\320\242\325?\377\377\377\237\225q\325?\000\000\000 \221\225\325?\000\000\000\200T\215\325?\000\000\000@\240\202\325?\000\000\000 \000\223\325?\000\000\000\000\300V\325?\000\000\000\300m^\325?\000\000\000\000B#\325?\377\377\377?\275\330\324?\377\377\377_\005\376\324?\000\000\000\300\371\330\324?\000\000\000`W\246\324?\000\000\000 M\266\324?\000\000\000\300\'l\324?\377\377\377\177ME\324?\000\000\000\200\352]\324?\000\000\000\340\254\013\324?\000\000\000\000\004\347\323?\000\000\000\300g\264\323?\000\000\000\000\204L\323?\000\000\000 Y\013\323?\000\000\000\300\374\274\322?\000\000\000`c\275\322?\000\000\000\000It\322?\377\377\377\277\215>\322?\377\377\377\237\211+\322?\000\000\000`\t\374\321?\377\377\377\177\001\316\321?\377\377\377\277B\262\321?\000\000\000@\217\233\321?\000\000\000\200\216\215\321?\000\000\000@\\l\321?\377\377\377\177\207<\321?\000\000\000 \024\031\321?\377\377\377\277P\362\320?\000\000\000@\031\030\321?\000\000\000@\311\335\320?\000\000\000@\223\274\320?\000\000\000@\212\327\320?\000\000\000\000\314\275\320?\377\377\377\237\022\216\320?\377\377\377?\253\212\320?\000\000\000\340u\246\320?\377\377\377\177\263e\320?\000\000\000 \007x\320?\000\000\000@\327\213\320?\377\377\377\377`w\320?\377\377\377\237La\320?\377\377\377\237I\227\320?\000\000\000 U{\320?\377\377\377\377\245i\320?\377\377\377_wl\320?\377\377\377\237Nq\320?\000\000\000@On\320?\000\000\000@\220@\320?\000\000\000\000\212Q\320?\377\377\377\337\234Q\320?\000\000\000\3007P\320?\377\377\377\377jJ\320?\377\377\377\177\213`\320?\000\000\000@VO\320?\377\377\377\177\363W\320?\377\377\377?\245F\320?\000\000\000\300\001:\320?\377\377\377\0375B\320?\000\000\000 \207Z\320?\000\000\000\000\276\227\320?\000\000\000@\236\305\320?\000\000\000\200\223\253\320?\000\000\000@\376\335\320?\000\000\000\000\217\373\320?\377\377\377\377\335k\321?\000\000\000@\336{\321?\377\377\377\277\335\323\321?\000\000\000\300<\037\322?\000\000\000 7\235\322?\377\377\377\377\240\033\323?\377\377\377\377$1\323?\377\377\377?/@\323?\000\000\000\200h\276\323?\000\000\000\300\340\370\323?\377\377\377\237\223g\324?\000\000\000\340s\275\324?\000\000\000\300\357\025\325?\377\377\377\037\332\201\325?\377\377\377\237\203\264\325?\377\377\377\337R\014\326?\377\377\377\037\341\356\325?\000\000\000 \321\342\325?\377\377\377\377\245\300\325?\377\377\377\037\266\334\325?\000\000\000\000\272\274\325?\000\000\000\200k\206\325?\377\377\377\177\215\277\325?\377\377\377\337\215`\325?\000\000\000`\037\227\325?\377\377\377\277\030S\325?\000\000\000\000\002\231\325?\377\377\377\277\214\317\325?\377\377\377\337\341\373\325?\377\377\377\237\276\325\325?\000\000\000\200\350\340\325?\377\377\377\377\337\362\325?\377\377\377\277E\203\325?\000\000\000@\231o\325?\000\000\000\200\022E\325?\000\000\000`\321<\325?\377\377\377\237N$\325?\000\000\000 \215N\325?\000\000\000\000x\031\325?\000\000\000\200b\022\325?\000\000\000\300q\373\324?\000\000\000\000\273\357\324?\000\000\000\000q\330\324?\000\000\000@B\310\324?\377\377\377\177v\300\324?\000\000\000\200W\305\324?\000\000\000\000\007\310\324?\377\377\377\377V\033\333?\000\000\000\340\004*\333?\000\000\000\000\001W\333?\377\377\377\337\237V\333?\377\377\377\277W$\333?\000\000\000@\rL\333?\377\377\377\337\242\013\333?\000\000\000\300\271\305\332?\000\000\000`!\311\332?\000\000\000@\024\323\332?\000\000\000 \200K\332?\000\000\000\240\2320\332?\377\377\377?-\032\332?\000\000\000\200\253J\332?\000\000\000\240%;\332?\377\377\377\037`\020\332?\000\000\000\000B\351\331?\000\000\000\000\370\226\331?\000\000\000\200\222\306\331?\377\377\377?c|\331?\000\000\000@OU\331?\000\000\000\300\245 \331?\377\377\377_}\354\330?\000\000\000\340\007\252\330?\377\377\377\377\027\216\330?\377\377\377\277\221Y\330?\000\000\000\340\356@\330?\377\377\377\277\3268\330?\000\000\000\200\233,\330?\377\377\377\277\227\006\330?\000\000\000\200\254\322\327?\000\000\000@\227\323\327?\000\000\000 \005\306\327?\377\377\377?b\207\327?\000\000\000\300nY\327?\377\377\377\377a\253\327?\000\000\000\200RT\327?\000\000\000 \314z\327?\377\377\377\277\026;\327?\000\000\000\300{@\327?\000\000\000\000\372\033\327?\000\000\000@\025*\327?\377\377\377\277\225\316\326?\377\377\377\377\234,\327?\377\377\377\177\005\017\327?\377\377\377?\2708\327?\377\377\377\377\024\262\326?\000\000\000\000\274\005\327?\000\000\000\240b\020\327?\000\000\000`\'\037\327?\377\377\377\277D\005\327?\000\000\000\300q\003\327?\377\377\377\277\333\037\327?\000\000\000\340j^\327?\000\000\000\0009P\327?\000\000\000\300\273\222\327?\000\000\000\300(p\327?\377\377\377\337\334\227\327?\000\000\000\000\361j\327?\377\377\377\377\346\204\327?\377\377\377\377\027\316\327?\000\000\000\200\225\251\327?\377\377\377\277\020\220\327?\000\000\000\200\024\233\327?\000\000\000\300c\257\327?\377\377\377\377\025\246\327?\377\377\377\277\325\266\327?\000\000\000\0008\241\327?\000\000\000\300\271\204\327?\377\377\377\037\350\363\327?\000\000\000 A\355\327?\000\000\000 \217\\\330?\000\000\000\200\343B\330?\377\377\377\237\306c\330?\377\377\377?\344\212\330?\000\000\000 y\355\330?\377\377\377\337d\211\331?\377\377\377\277\207\036\332?\000\000\000\340,\207\332?\000\000\000\200\027\375\332?\377\377\377_\356\216\333?\000\000\000\200mB\334?\000\000\000@\232\310\334?\377\377\377\337\327\025\335?\000\000\000\300=\301\335?\000\000\000\3400\r\336?\000\000\000`\314\251\336?\377\377\377?-\005\337?\377\377\377\377&\376\336?\000\000\000\300i-\337?\000\000\000`ga\337?\377\377\377\177\n}\337?\377\377\377\177~f\337?\000\000\000\340\251\242\337?\000\000\000\000\021W\337?\000\000\000 \331Y\337?\000\000\000`\310P\337?\000\000\000\000\374O\337?\377\377\377\277\0208\337?\377\377\377\277BM\337?\377\377\377\277P1\337?\000\000\000\340\304+\337?\377\377\377\177\311H\337?\000\000\000\200\3520\337?\000\000\000@\023\017\337?\000\000\000@\207\335\336?\377\377\377\277\025\324\336?\000\000\000\000\006\215\336?\000\000\000\240\245A\336?\000\000\000\340\365_\336?\377\377\377?oe\336?\377\377\377\037\2331\336?\000\000\000\000\277\334\335?\000\000\000\340\204\004\336?\000\000\000 \373\271\335?\000\000\000\000\006\251\335?\377\377\377?\265c\335?\000\000\000@\200\266\335?\377\377\377\037\363\222\335?\377\377\377\177L\240\335?\377\377\377\037\246\315\332?\377\377\377\377\255\017\333?\377\377\377?\256\345\332?\000\000\000\000\202\020\333?\000\000\000\000\211\341\332?\000\000\000\240f\030\333?\377\377\377\237K\007\333?\000\000\000\240\344\001\333?\000\000\000\240\265\356\332?\000\000\000\200\2210\333?\000\000\000\240/\321\332?\377\377\377\337\224\333\332?\000\000\000\300\001{\332?\000\000\000\340x\030\332?\000\000\000`Q\020\332?\000\000\000\3409/\332?\377\377\377?k\362\331?\000\000\000\240\364x\331?\377\377\377?\345\232\331?\000\000\000\000\301\'\331?\000\000\000\200\333\334\330?\000\000\000 8\311\330?\000\000\000\240\334W\330?\000\000\000\0003\023\330?\000\000\000\340h\300\327?\377\377\377\337\025\342\327?\377\377\377?\353g\327?\000\000\000`]<\327?\000\000\000 ~\365\326?\000\000\000``\304\326?\377\377\377\377c\247\326?\377\377\377\037Z\233\326?\377\377\377\337\326`\326?\377\377\377\337\2201\326?\000\000\000\200\323\342\325?\377\377\377\177\265\326\325?\000\000\000\300\373\274\325?\377\377\377\377\253\210\325?\377\377\377?\263u\325?\377\377\377\277\222T\325?\000\000\000 \316>\325?\377\377\377\177\267;\325?\000\000\000\200\237\033\325?\377\377\377\377\346\026\325?\377\377\377\377\226\223\324?\000\000\000@\302\221\324?\377\377\377\377\241\204\324?\000\000\000@\003\211\324?\000\000\000\200\235\240\324?\000\000\000\340Gb\324?\377\377\377?\243\231\324?\377\377\377\277\016\242\324?\000\000\000\3003\371\324?\000\000\000\300\375\033\325?\377\377\377_9\325\324?\000\000\000\3409\353\324?\377\377\377\377-\002\325?\000\000\000 \330\304\324?\377\377\377\037\236\021\325?\000\000\000`Q\356\324?\000\000\000\200\247\022\325?\377\377\377\177~\345\324?\000\000\000\340\303\236\324?\000\000\000\340\306\240\324?\000\000\000\340F\235\324?\000\000\000\240\326\263\324?\000\000\000\200&\262\324?\377\377\377\377\227\354\324?\000\000\000 G\253\324?\000\000\000\300t#\325?\377\377\377?\347\r\325?\377\377\377\277\227D\325?\000\000\000\200Ul\325?\377\377\377\177\210\322\325?\377\377\377\277\322]\326?\377\377\377\037\246\254\326?\377\377\377\177\263\234\326?\377\377\377_\353H\327?\377\377\377\277\324\321\327?\000\000\000\300.\350\327?\377\377\377\237\205z\330?\000\000\000\300\352\013\331?\000\000\000 \330u\331?\377\377\377\337\216\206\332?\377\377\377\237\304\353\332?\000\000\000\240\255a\333?\377\377\377\277\314\237\333?\000\000\000\300\301\026\334?\000\000\000`G5\334?\000\000\000@\212\215\334?\000\000\000 B\254\334?\377\377\377\337Uy\334?\000\000\000\300\2514\334?\377\377\377_\202r\334?\377\377\377\377fS\334?\377\377\377_\201S\334?\377\377\377\377\026l\334?\000\000\000\200 \210\334?\000\000\000\300\262\246\334?\377\377\377_-\301\334?\377\377\377?\270\276\334?\000\000\000\340\263\256\334?\000\000\000\200\226\320\334?\377\377\377\277S\211\334?\000\000\000\300\263\216\334?\000\000\000@\2233\334?\000\000\000\200\022I\334?\377\377\377\337\227Z\334?\000\000\000 ~\204\334?\000\000\000 \0109\334?\377\377\377_\304\364\333?\000\000\000@\331\263\333?\000\000\000 \177\334\333?\377\377\377\037iY\333?\000\000\000\000\202y\333?\000\000\000\300,M\333?\000\000\000\200q^\333?\377\377\377?\243-\333?\000\000\000\340C+\333?\000\000\000\200\032\024\333?\000\000\000\200\344\331\331?\377\377\377_\377\366\331?\000\000\000@\004\207\332?\377\377\377\377\232\234\332?\377\377\377\237\215%\333?\000\000\000\000\300\222\332?\000\000\000 \327\214\332?\000\000\000\000\206%\332?\000\000\000\240\341[\332?\377\377\377\277\\<\332?\377\377\377\237\310\330\332?\000\000\000\240\027\355\332?\000\000\000`O\244\332?\377\377\377\177sV\332?\000\000\000@\227[\332?\377\377\377\177yt\332?\000\000\000`\315\350\331?\377\377\377\277\014\256\331?\000\000\000\240\237\260\331?\000\000\000\240\326z\331?\377\377\377\237\374\314\330?\377\377\377\277\004\237\330?\000\000\000`\010\002\330?\377\377\377\037\240\314\327?\377\377\377\277\032\202\327?\377\377\377\237\021\250\327?\377\377\377?bP\327?\000\000\000`Q\017\327?\000\000\000`i\235\326?\377\377\377\377\233P\326?\377\377\377\337\320q\326?\000\000\000\200cN\326?\377\377\377?\262*\326?\377\377\377\377\335\004\326?\377\377\377\277\210\215\325?\377\377\377?\373z\325?\000\000\000\200\016b\325?\000\000\000 \224\343\324?\000\000\000\200\317\225\324?\000\000\000\000\357\214\324?\377\377\377\277Y\213\324?\377\377\377\037l0\324?\377\377\377\237O!\324?\377\377\377\377]\002\324?\000\000\000\200o\"\324?\000\000\000@!\202\324?\377\377\377\277\334p\324?\377\377\377?\373m\324?\377\377\377?u\200\324?\377\377\377\277C\263\324?\000\000\000\200\253\034\325?\377\377\377\337\022*\325?\377\377\377\377\251\"\325?\377\377\377\177Bs\325?\377\377\377\037+/\325?\000\000\000@\rE\325?\377\377\377?5|\325?\377\377\377\277G^\325?\377\377\377?\367z\325?\377\377\377\377\325i\325?\000\000\000\000o1\325?\377\377\377\377\234E\325?\000\000\000\000\275\206\325?\377\377\377\277\224\236\325?\377\377\377\277L\273\325?\000\000\000`\035\220\325?\377\377\377_\374\275\325?\000\000\000@\200\246\325?\377\377\377_\361\254\325?\377\377\377\377U\364\325?\377\377\377\177\267H\326?\000\000\000\200\357T\326?\377\377\377\037\257\254\326?\377\377\377\277\211n\326?\000\000\000@\3218\327?\377\377\377\177\273K\327?\000\000\000\240b)\330?\377\377\377\377\3432\330?\000\000\000@\030\373\330?\000\000\000`\022\002\331?\377\377\377\377!\272\331?\000\000\000\200\234C\332?\000\000\000\240b\235\332?\000\000\000\000\004B\333?\377\377\377\377dB\334?\377\377\377\237\310\251\334?\377\377\377\377j\352\334?\377\377\377\377V\212\335?\377\377\377\337\234\213\335?\000\000\000`\031\245\335?\000\000\000`#\363\335?\377\377\377\377\333\030\336?\000\000\000\200\3613\336?\377\377\377\377\242\356\335?\377\377\377\277\215\376\335?\377\377\377\177~#\336?\377\377\377\177\265\020\336?\000\000\000@\240\010\336?\000\000\000@\214C\336?\000\000\000\000\303\027\336?\000\000\000\300\"$\336?\000\000\000\340\375+\336?\000\000\000\340{\035\336?\377\377\377\1777\314\335?\000\000\000@\025\325\335?\000\000\000`\337\265\335?\000\000\000\3003\251\335?\377\377\377\377e\262\335?\000\000\000\200\256\270\335?\000\000\000\000\0005\335?\000\000\000\300\373\037\335?\000\000\000\000\007\345\334?\000\000\000`\240\265\334?\377\377\377?\374\364\334?\000\000\000@\300g\334?\000\000\000\240\034S\334?\377\377\377\377]u\334?\000\000\000`_T\334?\377\377\377\337Ym\334?\000\000\000\240e\377\332?\377\377\377\377\246\010\333?\377\377\377\037\240\007\333?\000\000\000\200\024\n\333?\000\000\000@\177\022\333?\000\000\000 7\360\332?\000\000\000\340\253$\333?\000\000\000\000\3665\333?\000\000\000 \270?\333?\000\000\000@\2249\333?\000\000\000\300\350\202\333?\000\000\000\000\215\315\332?\377\377\377\237A\270\332?\377\377\377\237\376\237\332?\377\377\377\277\315\230\332?\377\377\377?\272\213\332?\377\377\377?-\237\332?\000\000\000\000\366\250\332?\377\377\377\277\234\220\332?\377\377\377\237\305\354\331?\377\377\377\177t\266\331?\377\377\377\337%\211\331?\000\000\000`W\203\331?\000\000\000`\344D\331?\000\000\000\300\363\014\331?\000\000\000 \022\022\331?\377\377\377\237\310\266\330?\000\000\000\300\275\304\330?\377\377\377\277Kt\330?\000\000\000 }P\330?\377\377\377\037$0\330?\377\377\377\177\200\347\327?\377\377\377\277\333\277\327?\000\000\000\200_\226\327?\000\000\000\340p\211\327?\377\377\377\337\235>\327?\377\377\377\377\224 \327?\377\377\377\377)\003\327?\000\000\000 Q\326\326?\000\000\000\300\301\223\326?\000\000\000@\230D\326?\377\377\377\177\274Q\326?\000\000\000`\021)\326?\000\000\000\240\351\362\325?\377\377\377?\346\331\325?\000\000\000 \225\336\325?\377\377\377\337\013\002\326?\000\000\000 \230\024\326?\000\000\000`\226\031\326?\000\000\000@\022\004\326?\377\377\377?\370\241\325?\000\000\000@\213\311\325?\377\377\377\377\254\325\325?\377\377\377\277B\322\325?\377\377\377\337M\376\325?\377\377\377\177\r\326\325?\377\377\377?-\002\326?\377\377\377\277\315\003\326?\000\000\000`K\355\325?\000\000\000\240\262\023\326?\377\377\377?6\371\325?\000\000\000@]\277\325?\000\000\000\0001\006\326?\000\000\000`\326\355\325?\000\000\000`\351Z\325?\000\000\000\300\245x\325?\000\000\000\000\177R\325?\377\377\377?u\203\325?\000\000\000\000H\007\325?\000\000\000\340q \325?\000\000\000\300-5\325?\000\000\000@\006s\325?\377\377\377\277\210\\\325?\377\377\377\237\201\272\325?\000\000\000\340v\212\326?\377\377\377\377iy\326?\377\377\377\277\213\365\326?\377\377\377\237OF\327?\000\000\000 \026l\327?\000\000\000\300w\327\327?\000\000\000\200\"U\330?\377\377\377\177\263\343\330?\377\377\377\377\250s\331?\000\000\000@\331\332\331?\377\377\377?\265v\332?\377\377\377\177\363\323\332?\377\377\377\177;!\333?\377\377\377?yU\333?\377\377\377\037\250\260\333?\000\000\000\300\337\003\334?\377\377\377\337T.\334?\000\000\000\200\021J\334?\000\000\000\000\010#\334?\377\377\377\237\215L\334?\377\377\377\177\314\373\333?\377\377\377\337\0300\334?\000\000\000 \315%\334?\000\000\000@K&\334?\000\000\000@\337\366\333?\000\000\000\200\352\t\334?\000\000\000@~\350\333?\377\377\377_/\267\333?\000\000\000\0009F\334?\377\377\377_*\031\334?\000\000\000\300\243\233\333?\000\000\000`\021\252\333?\377\377\377\377\036f\333?\377\377\377\177K@\333?\377\377\377\177\006V\333?\000\000\000\300\264C\333?\000\000\000\300\372.\333?\000\000\000\200\333\320\332?\377\377\377\277\332z\332?\377\377\377\337\230y\332?\377\377\377\377*;\332?\000\000\000\200W]\332?\000\000\000\000\003\036\332?\000\000\000\300<\023\332?\377\377\377\277\235`\332?\000\000\000\200\256;\332?\000\000\000\340-\247\332?\000\000\000\240\032\327\332?\377\377\377?.\313\332?\000\000\000`\232\337\332?\377\377\377\337\020\323\332?\377\377\377\377*\275\332?\377\377\377_k\313\332?\000\000\000 \220\232\332?\377\377\377\377R\206\332?\000\000\000 \204_\332?\000\000\000\200\022W\332?\000\000\000\000\221-\332?\377\377\377\237\374\355\331?\377\377\377\337\213\320\331?\377\377\377\177\300\246\331?\377\377\377\037\033l\331?\000\000\000@\001:\331?\377\377\377\377T\344\330?\000\000\000\300\274\323\330?\377\377\377\177\200z\330?\000\000\000\300x\245\330?\377\377\377\037\246\210\330?\377\377\377\037\2520\330?\377\377\377\237\314G\330?\377\377\377?\"J\330?\000\000\000`\350F\330?\000\000\000@\240\006\330?\000\000\000 \311%\330?\377\377\377\337\342\200\327?\377\377\377\237z^\327?\377\377\377?\373,\327?\377\377\377\277\235\001\327?\377\377\377\377\024\344\326?\000\000\000\300\275n\326?\000\000\000\340\203\231\325?\377\377\377\337\027\217\325?\377\377\377_x\237\325?\377\377\377\177\215$\325?\000\000\000\2400(\325?\377\377\377\277L\314\324?\377\377\377_\364\206\324?\377\377\377\177\204&\324?\000\000\000\200\257(\324?\000\000\000\340\177#\324?\377\377\377_4\347\323?\377\377\377\337\335\371\323?\377\377\377_j\335\323?\000\000\000`\251<\324?\377\377\377\037gl\324?\000\000\000 